[PAD]
[UNK]
[START]
[END]
!
#
$
%
&
'
*
+
,
-
.
/
:
;
=
?
@
K
N
U
\
^
_
`
a
b
c
d
e
f
g
h
i
j
k
l
m
n
o
p
q
r
s
t
u
v
w
x
y
z
~
the
of
to
in
and
on
for
said
that
with
at
an
as
from
by
tuesday
has
wednesday
thursday
his
monday
was
its
UNK
friday
is
after
lrb
rrb
president
will
new
it
year
two
government
their
have
be
over
sunday
he
first
world
china
saturday
minister
were
who
here
us
people
against
up
this
more
country
percent
one
are
officials
state
united
police
reported
million
three
into
been
last
than
official
but
they
day
about
international
would
had
south
not
##s
states
former
foreign
out
years
week
european
which
city
prime
national
killed
when
military
group
billion
dollars
today
announced
chinese
news
next
war
security
her
iraq
second
prices
court
four
bank
between
time
month
off
according
top
or
down
company
party
leader
american
oil
during
economic
agency
all
could
five
trade
some
stock
cup
union
other
british
talks
general
local
federal
israeli
market
central
french
called
high
major
points
palestinian
most
kong
may
hong
no
bush
team
before
closed
russian
home
political
southern
authorities
early
north
six
house
nations
capital
peace
under
province
dollar
died
taiwan
israel
end
york
leaders
least
ministry
secretary
chief
old
set
countries
months
nation
back
man
held
russia
him
while
left
defense
night
since
visit
korea
east
african
nuclear
if
help
share
third
exchange
region
presidential
days
league
made
largest
opposition
france
election
northern
them
open
being
following
won
german
close
death
long
health
troops
forces
india
public
higher
through
quarter
report
expected
final
th
army
west
women
financial
stocks
killing
office
plans
saying
elections
take
meeting
economy
pakistan
ago
george
part
win
another
al
there
because
air
media
rights
un
led
rose
lower
including
attack
season
where
senior
record
global
round
asian
victory
iran
says
arrested
john
men
attacks
plan
power
iraqi
africa
corp
crisis
dealers
late
amid
what
spokesman
accused
australian
near
britain
support
index
members
opened
key
clinton
afghanistan
republic
despite
street
hit
force
germany
investors
center
lead
found
can
head
make
democratic
she
reports
seven
campaign
thousands
agreed
indian
released
anti
euro
business
department
urged
games
council
just
nearly
fire
administration
agreement
run
ahead
fell
charges
development
workers
program
deal
australia
took
should
only
olympic
service
white
europe
injured
trading
parliament
work
morning
washington
efforts
press
obama
way
bid
gold
beijing
border
industry
half
leading
commission
human
eight
trial
signed
across
game
co
eu
recent
drug
wall
committee
inc
companies
soldiers
around
law
children
shares
warned
markets
still
any
islamic
many
island
western
coach
bill
told
several
even
number
began
say
due
organization
##a
match
suspected
cooperation
weekend
series
congress
rebels
case
dead
beat
champion
so
biggest
profit
##ing
giant
others
test
car
eastern
shot
met
energy
sales
bomb
america
violence
premier
system
weeks
gaza
conference
strong
italian
london
taking
barack
town
latest
start
prison
past
england
decision
newspaper
food
interest
ended
arrived
korean
now
aid
chairman
school
gas
vice
race
cut
growth
move
television
rate
life
whether
free
judge
mexico
##e
control
tour
main
right
sources
nato
middle
republican
meet
both
among
fourth
ruling
club
return
soccer
strike
pay
hundreds
based
sri
like
scored
turkey
face
summit
earlier
opening
possible
put
##ed
release
money
executive
investment
university
special
championship
become
much
star
do
coast
nine
family
senate
asia
show
times
increase
how
woman
member
use
italy
arab
march
title
launched
spain
get
without
fight
protest
policy
hospital
further
football
association
militants
airport
tournament
charged
muslim
relations
indonesia
level
thailand
went
hours
used
terrorist
making
zealand
vote
fund
board
price
california
continued
whose
play
philippine
big
same
##i
ordered
trying
terrorism
area
june
spanish
place
hold
labor
baghdad
canada
give
turkish
best
future
los
finance
small
showed
demand
yen
failed
aimed
well
rival
fighting
again
groups
investigation
alleged
reached
post
armed
angeles
rebel
indonesian
ban
action
supreme
july
did
tax
regional
go
de
outside
##y
wounded
contract
daily
annual
lost
communist
hopes
body
decided
##o
internet
red
far
sent
away
##d
civil
vietnam
san
growing
statement
weapons
services
ministers
confirmed
joint
afghan
private
##ly
effort
young
winning
concerns
suicide
line
budget
keep
building
information
iranian
players
medical
such
own
term
little
brazil
michael
ever
space
history
production
discuss
japan
water
might
step
rates
mark
total
planned
ties
emergency
illegal
technology
canadian
texas
session
##n
sentenced
plane
director
you
toward
gains
data
murder
asked
grand
previous
until
championships
thai
order
stop
champions
justice
palestinians
expressed
mission
tokyo
ii
pressure
deadly
xinhua
pakistani
reserve
radio
shanghai
process
saudi
role
crimes
lanka
likely
soon
lebanon
sea
proposed
loss
issue
japanese
strip
later
earthquake
few
heavy
paris
issued
taliban
those
low
battle
afternoon
full
boost
black
students
september
known
dutch
earnings
maker
good
egypt
zimbabwe
net
seeking
myanmar
continue
prosecutors
coalition
behind
change
moscow
banks
legal
##er
claimed
fired
affairs
gulf
rally
flu
officers
within
lawmakers
gave
results
missing
community
victims
almost
period
firm
ruled
amp
##t
straight
rejected
large
airlines
once
visiting
americans
station
corruption
cricket
came
officer
nigeria
cabinet
candidate
issues
must
named
along
scheduled
dlrs
david
hamas
##r
deputy
egyptian
january
malaysia
convicted
film
king
disease
summer
call
sector
rising
received
better
operations
working
turned
helped
pacific
construction
stage
also
denied
caused
paul
jobs
running
robert
negotiations
county
domestic
current
fears
industrial
operation
build
rise
philippines
movement
measures
re
front
fresh
parties
massive
offer
buy
job
losses
forced
moving
moved
bombing
returned
sign
computer
detained
field
kosovo
each
dispute
areas
calling
ireland
land
embassy
church
real
published
greek
problems
research
allow
decades
dropped
network
swiss
residents
governor
taipei
worth
reach
side
wife
november
road
st
crashed
fall
products
less
join
anniversary
authority
mayor
taken
social
carrying
parliamentary
tennis
experts
debt
ending
terror
bosnian
pro
manager
threat
already
cross
bosnia
florida
statistics
hussein
event
started
overnight
century
come
ground
safety
attempt
october
launch
point
april
provide
leaving
project
training
allegedly
short
olympics
greece
conflict
jewish
euros
figures
increased
host
player
inflation
goal
begin
site
sell
concern
spending
plant
threatened
park
leave
sen
became
recently
powerful
study
flight
himself
interior
try
currency
port
brazilian
credit
education
jordan
highest
care
warning
base
coming
reform
bangladesh
great
approved
cases
homes
river
troubled
ethnic
career
airline
travel
millions
sports
democracy
august
aircraft
ready
protests
heart
diplomatic
bus
ambassador
using
competition
sharply
backed
fuel
given
controversial
yuan
camp
district
does
tv
train
mexican
consumer
hard
december
profits
democrats
reaching
mass
owned
bring
czech
prevent
evening
condemned
tried
forward
debate
division
delegation
declared
##l
staff
see
going
dozens
english
jail
seized
beating
broke
lawyer
vowed
analysts
worst
suspended
intelligence
poor
confidence
cost
criminal
holding
mixed
planning
arrest
crude
saddam
too
pledged
guilty
send
insurance
wants
arms
militant
got
son
sanctions
sudan
child
civilians
kenya
envoy
explosion
basketball
music
territory
voters
list
guard
recovery
scandal
fifth
elected
commercial
rescue
popular
aids
claims
sept
attorney
enough
tony
refugees
selling
yet
rule
raised
allegations
hope
serb
lebanese
drugs
having
evidence
crime
southeast
starting
improve
filed
brought
finish
funds
toll
serious
performance
federation
boston
independent
minutes
gov
cuba
shooting
offered
northwest
find
hour
slightly
injury
crash
chicago
banking
then
struck
facing
drop
remain
vladimir
cash
charge
upcoming
parts
alliance
soldier
proposal
trip
georgia
zone
argentina
remained
malaysian
relief
hurricane
february
defending
break
storm
supporters
commander
nepal
decade
bay
search
tamil
stadium
activists
bilateral
fans
need
huge
catholic
rugby
protect
age
independence
raise
banned
traffic
giving
wanted
progress
religious
exports
costs
tiger
environmental
employees
mainland
positive
medal
ukraine
soviet
cancer
fraud
representatives
seek
counterpart
injuring
situation
protection
arafat
overseas
##es
cities
finals
every
majority
shiite
light
pope
sweden
raising
sought
management
phone
voted
source
streets
hillary
hand
conservative
scientists
swedish
winter
poland
rules
remains
form
name
sex
bureau
never
festival
protesters
sale
madrid
draw
yasser
missile
track
legislation
natural
assembly
qaida
striker
push
navy
syria
unit
calls
movie
settlement
futures
college
attacked
polls
blue
prosecutor
holiday
welcomed
deficit
challenge
deaths
looking
passengers
ship
seen
colombia
damage
promote
village
prepared
clashes
involved
bringing
resolution
setting
suspects
conditions
separatist
teams
compared
lawyers
newly
immigration
linked
jose
headed
reduce
auto
monetary
these
goals
nigerian
baseball
attend
played
drive
living
sides
lives
kashmir
venezuela
congressional
flights
athens
ceremony
promised
risk
prize
republicans
hotel
refused
stay
potential
passenger
tourism
candidates
headquarters
southwest
chancellor
sold
single
schools
securities
cars
putin
serbia
appeared
wounding
arabia
tehran
though
important
buying
winner
corporate
turn
pounds
suffered
irish
person
response
draft
witnesses
sending
passed
position
joined
cyprus
congo
doctors
non
treaty
losing
online
clear
atlanta
paid
disputed
double
housing
posted
super
gunmen
friendly
book
gathered
combat
exploded
treatment
bodies
needed
inside
ex
related
investigating
criticism
export
virus
citizens
sharp
truck
rain
closing
violent
cuts
captain
royal
agriculture
tensions
kurdish
investigators
climate
james
minute
boy
programs
defeat
weather
nationwide
together
very
father
suspect
supply
resigned
personal
jerusalem
getting
manchester
survey
uganda
plc
bird
believed
chance
##h
switzerland
falling
equipment
resume
motor
families
lawsuit
mother
kuwait
allowed
closer
criticized
want
expectations
rice
create
governing
student
recession
accident
unemployment
avoid
bombings
squad
historic
stand
disaster
tourists
governments
look
northeast
deep
package
ag
latin
projects
blair
row
struggling
increasing
##m
playing
leg
rich
jury
signs
brown
ltd
prominent
tough
tons
reforms
businesses
carrier
commerce
prisoners
jersey
traders
panel
spent
course
tests
developing
immigrants
legislative
activities
wing
figure
##on
speed
jailed
laws
renewed
agencies
finally
jet
mobile
common
roman
kept
crew
humanitarian
defeated
act
property
art
offensive
stake
secret
leadership
showing
considering
interview
access
saw
netherlands
constitution
treasury
spread
faced
francisco
rivals
beginning
changes
fiscal
extended
award
qualifying
ways
##c
poll
hockey
software
transport
demanded
vehicles
elect
polish
seriously
worldwide
executives
abuse
syrian
guerrillas
review
chen
communications
supplies
civilian
fast
pulled
problem
girl
green
involving
outbreak
video
zambia
museum
rare
above
ounce
regime
offering
helping
prix
crackdown
crucial
journalists
develop
presidency
environment
hall
unveiled
jean
probe
farmers
helicopter
milan
boris
ensure
hoping
mahmoud
controlled
standing
annan
atlantic
plunged
allies
islands
christmas
bad
jan
telecommunications
consecutive
richard
pleaded
average
dismissed
expand
hollywood
croatia
lee
yugoslavia
advanced
faces
peacekeeping
surgery
causing
jacques
prince
dozen
loan
levels
commissioner
request
diplomats
jones
neighboring
completed
institute
veteran
tens
per
shut
speaker
strengthen
bin
##u
clients
blamed
martin
scale
fair
foot
policies
driver
##k
connection
autonomous
result
spring
kofi
austria
pentagon
wake
resolve
becoming
chavez
halt
motors
lankan
documents
immediate
live
colombian
vehicle
claim
hugo
handed
cambodia
discovered
wave
fighters
added
target
refugee
speech
mike
resort
enterprises
needs
room
rallied
mine
direct
decline
separate
threatening
seeded
focus
christian
rest
torn
themselves
weak
delayed
income
##an
telephone
hearing
steel
##man
sudanese
golf
operating
microsoft
continuing
although
referendum
severe
wide
hands
injuries
classic
failure
portugal
cuban
currencies
aviation
ali
stories
darfur
caribbean
hk
era
producer
failing
born
preparing
haiti
wo
ongoing
charles
threats
chechnya
self
organizers
miles
population
peter
romania
bob
consider
apparently
organizations
assistance
terms
terrorists
stepped
mostly
goods
traditional
diplomat
admitted
ocean
resources
advance
semi
status
sixth
tourist
afp
hostage
class
greater
lines
mccain
cause
journalist
williams
##g
patients
systems
owner
sentence
rocket
boat
defended
described
web
stars
firms
talk
forum
muslims
range
strategy
message
agents
rodham
assault
carlos
address
assets
provincial
let
committed
itself
cutting
demanding
steps
grew
aboard
blow
built
fellow
norway
tribunal
chemical
miss
carried
spokeswoman
save
nba
finished
revenue
benchmark
parents
davis
li
limited
remote
entered
ease
northeastern
beach
serbian
nicolas
cold
instead
rock
waters
manhattan
begun
designed
coup
loans
politics
extend
mid
we
regulators
square
matches
blast
abdullah
gay
freedom
destroyed
imposed
resignation
watchdog
questions
agent
takeover
poverty
decide
practice
retail
kenyan
delay
mountain
urging
sport
overall
science
quickly
accord
sparked
bonds
primary
daughter
longer
bankruptcy
exhibition
formally
links
value
deadline
midfielder
replace
raid
belgian
cultural
gained
block
meters
citing
bombs
officially
gore
success
gmt
awards
mining
driving
famous
clash
penalty
william
able
stability
yugoslav
abroad
constitutional
sydney
colin
husband
boeing
increasingly
cargo
##en
divided
imports
surprise
kim
allowing
impact
pace
tech
northwestern
vietnamese
insurgents
appointed
lifted
politicians
serbs
voting
accusing
powers
ousted
barrel
nobel
attention
fbi
strikes
trust
austrian
records
nt
consumers
electricity
lift
trafficking
staged
marked
below
critical
magazine
quoted
blood
landmark
gain
venezuelan
airways
shows
approval
berlin
sexual
satellite
letter
el
liberation
abbas
canceled
jr
eve
traded
coal
accept
female
runs
van
often
breaking
pushed
your
carry
convention
argentine
channel
responsible
ten
highway
twice
stopped
safe
belgium
appeal
customs
##ers
interim
changed
involvement
jets
gun
output
suffering
contracts
petroleum
yeltsin
immediately
auction
somalia
giants
forecast
radical
detention
spend
corporation
researchers
dialogue
bomber
swept
lack
senator
estimated
surged
unity
electoral
formula
planes
laden
postponed
tom
##al
product
caught
revealed
pre
bloc
custody
judicial
offices
doping
illegally
sa
worries
nazi
seconds
estate
successful
retired
youth
technical
rural
benefits
newspapers
events
assassination
johnson
different
meter
downtown
moon
lake
chile
seat
thomas
holy
signing
hailed
expects
thought
created
story
representative
cell
culture
farm
ivory
qaeda
atomic
pilot
steve
kill
demands
southeastern
chechen
significant
houston
activist
claiming
unions
queen
detroit
taiwanese
complete
nomination
expansion
marking
peacekeepers
concluded
edged
know
cease
manufacturing
electronics
preliminary
receive
sites
investigate
tsunami
albanian
actor
ice
strongly
danish
norwegian
administrative
society
##in
insisted
resumed
putting
enforcement
ukrainian
macao
serving
sharon
testing
mail
couple
orders
resistance
strategic
spot
chirac
slow
racing
considered
inter
hiv
guantanamo
peaceful
possibility
question
developed
withdrawal
sarkozy
hezbollah
denmark
sweeping
boosted
tobacco
massachusetts
ford
adding
miami
venture
singer
philadelphia
grant
votes
operator
emirates
towards
throughout
additional
shuttle
marine
initial
doctor
rangers
electric
internal
captured
declined
brother
opponents
alexander
peru
targets
ugandan
musharraf
probably
factory
personnel
stronger
freed
language
tropical
alert
smuggling
agricultural
tanzania
returning
withdraw
awaited
arsenal
guards
joseph
keeping
table
##z
believe
jumped
ranking
placed
minority
adopted
semifinals
angry
tibet
fifa
baby
pervez
benjamin
visited
tiny
volatile
thanks
effect
louis
forest
bond
finland
memorial
dangerous
##p
heads
regions
powell
taxes
jackson
establish
jakarta
critics
tie
fighter
finding
blocked
date
somali
automaker
scotland
customers
flood
investor
rather
arizona
valley
fishing
southwestern
standards
ran
weekly
ariel
seed
palace
demonstrators
gen
restore
measure
devastating
granted
industries
embattled
sentiment
bulgaria
remaining
ethiopia
kind
shenzhen
dallas
relatives
fought
appeals
forcing
floods
abu
unless
celebrated
debut
masters
worked
cast
mubarak
defender
hoped
hurt
recovered
joe
serve
streak
angola
produce
damaged
lowest
fear
maintain
invest
qualifier
militia
struggle
commonwealth
policemen
honor
##b
transfer
solution
buildings
cable
announce
triggered
my
foundation
pass
portuguese
crowd
stations
highly
settle
broken
genocide
enter
carolina
secure
barcelona
jordanian
friends
railway
think
partner
hosni
coastal
commitment
membership
seventh
plants
awarded
houses
improved
collapse
exchanges
professional
concerned
gordon
hill
positions
drew
plot
restrictions
heading
watch
speculation
neighbors
strength
bangkok
democrat
transportation
stores
rwanda
responsibility
announcement
rome
website
certain
mideast
guangdong
flying
presence
la
libya
slammed
vatican
owners
suggested
nasa
providing
rains
present
accepted
antonio
something
entry
lawmaker
shui
command
athletes
cleared
presented
bowl
survivors
sars
ehud
store
colorado
milosevic
telecom
praised
modern
warming
kingdom
surge
upset
ill
cover
bridge
croatian
moderate
love
looked
boxing
ailing
israelis
founder
snow
steady
academy
hu
outlook
condition
ancient
bloody
stood
landing
knee
gasoline
quarterfinals
largely
retirement
bian
abortion
determine
clean
ask
cocaine
institutions
unprecedented
juan
resign
fierce
osama
condoleezza
hot
jiang
dominated
nothing
marathon
leftist
wild
prospects
stalled
turning
provided
howard
discussed
heavily
proposals
pushing
sank
clashed
joining
mortgage
partnership
slobodan
##le
emerged
acting
complex
funding
quality
quit
agenda
donald
mugabe
meetings
prepare
pipeline
breakaway
earth
activity
stroke
kilometers
opec
advertising
chain
threw
explosives
oct
conduct
chris
standard
hungary
feared
available
swine
politician
extra
style
pull
naval
jump
peninsula
welcome
inquiry
details
smith
exercise
partners
sun
ahmed
moves
apparent
onto
dprk
generation
bitter
associated
improving
##f
rocked
singapore
fidel
predicted
why
cycling
include
chelsea
dec
widespread
broad
cleric
par
turmoil
difficult
chip
dr
homeland
golden
eighth
relationship
comments
denver
heat
bought
recorded
cia
iraqis
asylum
mutual
accusations
doing
missiles
casualties
timor
romanian
pact
contest
pilots
virginia
seattle
oscar
nelson
curb
defend
ally
tribal
broadcast
heard
tight
winds
suspicion
appealed
legislature
amount
municipal
businessman
lot
books
hamid
patrol
xvi
kansas
numbers
diego
favorite
fields
mosque
yankees
aide
fled
indicted
reportedly
pair
guinea
profile
permanent
purchase
continues
kerry
our
agreements
kicked
optimism
incident
negotiators
comes
swimming
kabul
card
##ra
cambodian
facilities
interests
spy
registered
reiterated
rail
mounting
flag
pop
zimbabwean
flooding
organized
potentially
benedict
expert
celebrate
sharing
dow
investments
worker
##ia
daniel
luxury
widely
produced
uefa
athletics
sierra
reserves
boycott
continent
differences
especially
shopping
various
invitation
ring
##ic
overhaul
ben
merger
sets
creating
prompted
formed
import
established
roger
task
blew
intended
unrest
entertainment
regular
appear
islam
dick
willing
takes
airbus
gone
drivers
playoff
scores
affected
islamist
fly
gang
route
##us
facility
cairo
visitors
friend
hang
fashion
compensation
nov
berlusconi
billions
aside
reporters
view
funeral
girls
adviser
traveling
fully
agree
cypriot
flat
door
kevin
standoff
dubai
marched
frank
hunting
teachers
welfare
picked
chips
dramatic
netanyahu
silvio
kremlin
##la
ninth
rockets
backing
similar
influence
flew
foreigners
jack
voiced
works
asean
birth
kennedy
marriage
crown
belarus
animal
riot
hitting
fine
jintao
ethiopian
pound
socialist
appears
ceasefire
chances
sunni
munich
roadside
arm
counter
ki
vast
killings
fernando
removed
shortly
indies
innings
units
string
ravaged
destruction
qatar
anatolia
done
battered
choice
electronic
invasion
box
nfl
accounting
previously
pyongyang
slipped
delivered
bound
uranium
remove
multi
judges
wales
##te
zemin
karzai
massacre
##is
rwandan
climbed
zambian
tackle
offset
desert
woods
alive
discovery
##v
formal
producers
killer
reconstruction
georgian
buried
beyond
reduced
jim
longtime
trouble
beef
names
lay
actress
rio
initiative
interfax
neighborhood
liverpool
account
makes
pollution
yemen
weighted
brief
thing
image
pick
truce
alan
cpc
hostages
follow
mainly
version
closely
confident
macedonia
introduced
wto
laid
denounced
attempts
inspectors
soaring
remarks
ski
acknowledged
asking
shareholders
singles
collided
twenty
fatal
digital
idea
junior
networks
presidents
trillion
gathering
helicopters
quick
makers
invited
striking
tested
gates
ranked
ecuador
soared
favor
launching
unchanged
restructuring
chiefs
guerrilla
scientific
promising
engine
feet
occupied
composite
bail
senators
seemed
scene
delta
teenager
gross
successfully
voice
waiting
bulgarian
wang
bills
believes
extremists
rebound
minor
questioned
compromise
birthday
weaker
worried
watched
dawn
slump
selected
promoting
firing
holdings
amnesty
provinces
compete
patrick
effective
cooperate
split
handling
arrive
drought
entering
deals
plotting
walked
seoul
seats
bailout
theater
boss
erupted
earned
revive
entire
alberto
finnish
active
yesterday
scheme
victim
##ie
algeria
boosting
impose
expanding
eased
limit
establishment
tampa
moment
junta
schedule
author
stem
quiet
computers
means
struggled
paying
opposed
expect
rep
liberal
roads
fined
castro
jews
urban
reconciliation
phoenix
minnesota
duty
witness
silver
belgrade
determined
possibly
disarmament
actions
ohio
scott
manufacturer
writer
mediterranean
katrina
villages
stressed
stable
calm
premiership
express
strait
borders
employment
aug
protested
always
landed
nearby
insurgency
ships
monitoring
utility
acquire
things
grow
suspension
included
unlikely
basis
fate
mount
falls
slowdown
dictator
regulations
lose
abandoned
emerging
inning
demonstration
receiving
medicine
firefighters
financing
sheikh
airports
charity
violations
tension
subsidiary
assistant
restaurant
broadcasting
attended
imf
fastest
nationals
participate
sure
andy
hunger
surplus
trucks
gloria
km
drove
lady
camps
brian
places
convoy
crowded
libyan
manila
reporting
attempted
feb
seems
benefit
controversy
served
file
tim
costa
mandela
##ry
dealing
protesting
challenges
deutsche
display
pga
nikkei
advantage
prosecution
kilograms
cautious
easy
henry
heavyweight
manuel
accounts
shook
hospitals
payments
warnings
delegates
##rs
creation
kazakhstan
check
bar
brokers
searching
morocco
chilean
perhaps
wind
model
viktor
offshore
temporary
bangladeshi
whom
comeback
extending
execution
fatah
fc
crossing
wen
fox
sarajevo
temporarily
algerian
basque
toyota
trophy
dodgers
deliver
crack
monitor
holocaust
nominee
packed
##ist
questioning
words
recover
burundi
promise
towns
demonstrations
infected
driven
editor
easing
sox
teen
ahmadinejad
apartment
band
restive
supporting
medals
brothers
phase
preparations
raids
economies
eye
looks
coverage
floor
stolen
upon
nepali
identified
##ting
##x
recovering
testified
revolution
##na
simpson
arroyo
surrounding
equity
mountains
luis
necessary
ability
material
stephen
leone
scottish
angela
pledge
waste
begins
evacuated
calif
alex
executed
ambitious
discussions
cleveland
declaration
prompting
reporter
factions
familiar
supported
explosions
races
lending
branch
survived
upper
changing
ca
veterans
##able
indicated
moslem
matter
seng
volume
organisation
delhi
hopeful
vision
edge
gerhard
currently
complaints
experience
modest
nhl
centers
doubt
istanbul
representing
appearance
concert
conducted
toronto
opinion
longest
native
opportunity
dissident
targeting
combined
rescued
##ling
anger
courts
albania
google
wimbledon
aides
movies
illness
poised
heroin
mohammed
respect
paper
mozambique
particularly
materials
risks
downturn
omar
##ness
brain
columbia
eurozone
tanks
pan
attending
da
suit
effects
link
everything
lakers
citizen
territories
distance
elite
individual
quarterback
torture
quake
unusual
expanded
monthly
tumbled
marketing
boys
clubs
fish
jointly
yemeni
drawing
wage
emissions
rescuers
infrastructure
spill
ap
deployed
runner
##ley
schroeder
ballots
nationalist
enhance
suspend
anyone
followed
frankfurt
views
revolutionary
pressed
covered
warplanes
approach
detainees
negotiator
hear
communities
tell
lord
opera
targeted
sweep
testimony
contain
pharmaceutical
meant
disney
filled
miners
elderly
arts
bolster
celebrations
marks
participation
bp
sued
telling
ballot
merkel
cheney
managed
briefly
negative
collection
raided
smoking
showdown
drawn
##da
comprehensive
magnitude
elizabeth
solid
tear
murdering
stimulus
normal
sensitive
abuses
dole
stormed
professor
hospitalized
policeman
word
intense
aceh
marines
withdrew
burned
bernard
cruise
balance
mile
extradition
wrong
ticket
negotiating
rafael
epidemic
tense
inmates
opener
priest
tass
bargain
pittsburgh
observers
gunman
globe
influential
producing
rapid
##ted
understanding
hungarian
wearing
itar
orleans
shots
manufacturers
brussels
danger
slovakia
die
lived
sworn
chosen
collapsed
hero
morgan
volleyball
billionaire
scoring
directors
kuwaiti
drc
visa
legislators
busy
announcing
motion
subway
goes
devastated
shipping
sao
users
suggesting
liberia
increases
picture
homeless
hindu
recommended
bases
publicly
ball
oldest
pole
feature
angolan
written
stricken
prospect
sustained
answer
cow
drama
fame
vessel
orthodox
bhutto
tank
slain
controls
fleet
fugitive
locked
stranded
hundred
phil
practices
unidentified
wu
olmert
winners
underground
focused
missed
animals
balkan
path
lewis
coffee
oklahoma
refusing
screen
thaksin
whole
mohammad
persons
returns
giuliani
tigers
journal
slowing
teacher
retailer
implementation
delays
ma
neighbor
##ton
guns
learned
racial
warm
wireless
metal
unknown
brand
overcome
reasons
##ne
princess
chrysler
mad
sectors
##or
memory
maria
sprint
unbeaten
uncertainty
tibetan
exile
pension
hired
bali
sexually
warren
reducing
sponsored
engineering
##w
employee
prove
sichuan
##as
damages
strain
troop
trapped
##ies
ripped
smaller
violating
spying
ferry
films
highs
introduce
pirates
shinawatra
hole
andrew
tael
throwing
riots
shift
escalating
listed
recall
tied
watching
##ity
momentum
##ment
taylor
settled
ghana
defensive
managers
arnold
villagers
deployment
pitcher
twin
adopt
rebounded
strengthening
puerto
battling
triple
shell
dream
tel
beaten
ll
christopher
plo
score
benazir
ranging
species
##ta
peruvian
windows
ratings
doubled
grenade
contact
grave
sound
progressive
gaining
aung
dropping
##ch
##ion
paramilitary
jiabao
laundering
replaced
accidents
fed
opponent
skating
kilometer
speaking
fires
johannesburg
slalom
lashed
mines
encourage
harry
acquired
fallen
false
larger
notorious
revised
aviv
laurent
basic
percentage
typhoon
reason
beirut
spreading
absence
stepping
priority
kick
spiritual
compound
add
atp
airliner
wait
separatists
hike
richter
importance
anticipated
bigger
teenage
passing
visits
tea
measuring
verdict
approve
stone
ac
knew
perfect
iron
linking
suburban
geneva
kyi
explosive
shock
ve
reflecting
andre
battled
limits
immigrant
risen
colleagues
violated
quarterly
silva
parade
##el
fleeing
talking
shortage
cents
kuomintang
palm
alaska
baltic
bombers
collision
allied
artillery
freeze
surging
wheat
narrow
antitrust
size
lifting
counterparts
mikhail
aggressive
hunt
achieve
blasted
trials
##ma
either
las
note
goalkeeper
attempting
michigan
francs
irna
existing
negotiate
organisers
politically
disputes
battles
suu
vaccine
extremist
shared
sam
bayern
halted
implement
revenues
conspiracy
stanley
fragile
dan
chamber
kidnapped
extension
section
transit
##son
stakes
chaos
stance
rebuild
brutal
capture
recalled
permission
mind
reduction
outgoing
abdul
challenger
publisher
celebration
required
sentences
greatest
acquisition
aiming
felt
hosts
donors
urgent
pursue
rating
bolivia
arrival
hostile
unable
prestigious
blame
declaring
travelers
montenegro
apart
walk
document
jason
mandate
optimistic
rounds
solve
midday
rookie
disabled
liu
publishing
trend
barred
closure
easily
consortium
belonging
enron
lama
paulo
wins
machine
starts
jeff
smoke
settlements
require
fiji
wars
technologies
amman
successor
azerbaijan
impoverished
inspection
##re
capacity
wildlife
includes
kg
mary
angels
alone
rush
guarantee
wrote
##less
donated
census
bit
landslide
santa
demonstrated
nominated
conviction
treated
occupation
stronghold
vital
exit
shore
unexpected
persuade
semifinal
sky
ranks
sometimes
universities
gary
searched
assured
badly
tries
diseases
trail
mets
scientist
##ar
burning
eliminate
prevention
artist
fees
disappointing
endorsed
bars
subsidies
allen
design
##ng
panama
bombay
promises
grain
repair
kings
thrown
promotion
lineup
deeply
incidents
eric
dennis
slam
complaint
enclave
reality
tanzanian
hotels
campus
indians
dog
plagued
yellow
chemicals
tribute
competitive
haitian
parent
hardline
kyrgyzstan
rapidly
reading
wickets
##ri
cyclone
assist
conflicts
rumsfeld
doubles
kmt
unanimously
zaire
victories
device
improvement
brooklyn
plea
seem
boutros
discrimination
vienna
vegas
conservatives
horse
doubts
song
tougher
cards
tanker
aim
cbs
overturned
sovereignty
lawsuits
trains
conglomerate
pending
pete
opportunities
bidding
carter
endangered
setback
audience
prisoner
displaced
singh
attorneys
shoulder
barometer
attract
exiled
spoke
dpp
petersburg
javier
suburb
virtually
statements
acts
automobile
fact
legend
bundesliga
##ism
shown
breakthrough
##tion
saint
sister
##ian
bear
dominican
casino
bishop
attacking
exercises
options
faster
hui
submitted
ones
banning
businessmen
count
rubber
incumbent
healthy
chase
gambling
drinking
expelled
charter
assad
confrontation
##ce
estimates
mumbai
eyes
unexpectedly
distribution
nd
chad
studies
escape
dark
miller
significantly
ray
lunch
schwarzenegger
employers
##os
deadliest
resumption
wine
dalai
bottom
wayne
succeed
hills
bahrain
code
investigations
slowed
blasts
boats
damaging
ibrahim
burst
nbc
connecticut
intensified
legislator
offers
friendship
imported
islamabad
vancouver
warner
respiratory
shootout
npc
tickets
uae
frozen
toxic
complained
federer
sat
influenza
sony
vowing
slaying
youths
##ov
covering
delivery
grounds
luiz
punishment
##se
commanders
sacked
rodriguez
rudolph
stayed
trees
deadlock
gunfire
mongolia
learn
leads
piece
ministerial
bat
jurors
jerry
pulling
choose
causes
##do
containing
sense
buddhist
thousand
jobless
fishermen
soft
gonzalez
plunge
astronauts
reaction
del
items
nature
outcome
rolled
garden
reputation
comedy
disclosed
pain
guatemala
concrete
mounted
poultry
playoffs
fan
tunnel
defeating
##ation
weakened
temperatures
thin
medvedev
xinjiang
devices
neighbouring
cowboys
wedding
jimmy
blocking
opens
withdrawn
dance
rand
booming
illinois
nasdaq
stunning
##ya
slide
##um
agreeing
en
protecting
feel
fort
zhejiang
kaohsiung
weakness
gets
maritime
contested
decisions
wages
identity
platform
moroccan
seasons
clearing
ying
funded
dmitry
traveled
developments
fewer
alternative
ramos
regulatory
solidarity
robbery
male
##men
contributions
greenhouse
factories
residence
bloomberg
respond
meat
amendment
intervention
laboratory
fever
##led
niger
orange
true
rouge
weighed
murdered
stands
institution
##ts
flames
refusal
midnight
khmer
plays
phones
doors
maintained
nairobi
sino
tycoon
relay
sergei
original
reaffirmed
barely
arena
damascus
edition
pennsylvania
exploration
inaugural
mohamed
directly
integration
aged
faction
narrowly
really
migrants
veto
flow
mena
harvard
rumors
pledging
reactor
stretch
subject
upheld
indoor
warrant
innocent
milk
ride
uzbekistan
worse
slumped
direction
##de
fatally
abandon
ioc
savings
shop
baltimore
barry
patient
expensive
newcastle
aerospace
holds
capitol
cartel
bell
inaugurated
surveillance
uruguay
montreal
forming
cope
marijuana
pregnant
secured
corps
easier
lance
harsh
peres
carl
tonight
acute
rd
serie
passage
filipino
khan
me
pierre
crossed
couples
jazz
weight
married
founding
via
seeks
##ter
honduras
proved
recognize
felipe
himalayan
musical
sugar
threaten
engaged
hidden
kidnapping
malawi
temple
powered
knocked
anna
au
pool
shimon
cells
slovenia
supports
##ble
celebrating
lithuania
regulation
slated
novel
acquitted
debts
edward
colombo
everyone
testify
academic
alcohol
looming
overcame
overtime
beer
imminent
settlers
aziz
smashed
utah
wealthy
##ka
provider
advocates
duties
hometown
soil
challenging
syndrome
com
affect
anything
intends
divisions
rushed
juventus
##st
mouth
volcano
polling
quest
declare
sectarian
karachi
universal
kentucky
evacuation
rick
##co
fla
overwhelmingly
chang
usa
gdp
license
declines
aims
pressing
elsewhere
deported
journey
retain
silence
spa
##ive
abc
iowa
overs
submarine
competing
challenged
circuit
faith
filing
inauguration
preparation
someone
operators
toss
wrapped
##ey
coca
knows
obtained
corner
beleaguered
desperate
posts
rejecting
wta
anthrax
copenhagen
marc
transition
broadway
outlawed
read
deepening
hiding
partial
steep
monopoly
organizing
extraordinary
reopened
retire
larry
mbeki
peng
behavior
finishing
treat
cancel
herself
explain
buses
flee
sitting
fake
fujian
exporting
sparking
pitch
christians
titles
images
mortar
trans
bribery
hits
buyers
##ck
hassan
sar
uprising
affair
don
page
saving
featuring
god
engineers
arguing
melbourne
violation
hebron
stealing
shattered
copa
escaped
avert
requested
upbeat
severely
jeou
multinational
##ko
barrier
criminals
occurred
albanians
arrests
honored
intel
threatens
automakers
refinery
clinched
lucrative
resolving
waves
badminton
derby
fixing
riding
barrels
downhill
louisiana
disappeared
medium
thabo
guangzhou
ordering
athletic
ankle
artists
districts
indiana
birds
sluggish
ceo
il
repeated
encouraging
goodwill
core
theme
campaigns
declining
solar
forthcoming
messages
metropolitan
ftse
external
judiciary
shortages
correspondent
dragged
armstrong
fail
pat
rallies
arriving
mozambican
theft
boom
forecasts
hijacked
rape
inspired
selection
simple
sadr
zhang
empire
medicare
millennium
estonia
sporting
waited
charging
nordic
payment
writing
ankara
holder
peak
informed
legendary
breast
fixed
terminal
writers
amazon
jamaica
renowned
torrential
tree
freestyle
gop
crews
diamond
encouraged
managing
pilgrims
reacted
hariri
richest
barak
drowned
leak
shandong
tentative
ambush
ahmad
airplane
roll
designer
mafia
maoist
mental
greg
murders
continental
ends
zoo
aftermath
fit
imprisoned
infection
ryan
simon
volkswagen
lula
protestant
seekers
minimum
reverse
donations
cool
lying
insurer
kuala
guy
mahmud
advisers
storms
vacation
##ro
salvador
enrichment
bourse
nascar
lows
shoot
sudden
buoyed
cincinnati
effectively
retailers
alleging
outstanding
pictures
campaigning
le
crops
dogs
heritage
robust
earn
eventually
gather
substantial
economists
letters
harbor
critically
diplomacy
girlfriend
shield
advisory
postal
shops
clothing
consumption
contentious
focusing
lumpur
slash
supposed
undergo
emotional
inacio
resolved
roy
preventing
ports
sidelines
##ur
signal
holidays
michel
##land
copper
hearings
sarah
##ful
outrage
establishing
worsening
possession
shed
machines
rico
isolated
magic
sit
semiconductor
##j
abducted
anthony
eritrea
exchanged
master
hosted
tragedy
criticised
rebuilding
replacing
ethics
recognition
sailors
commodity
ira
consultative
disrupted
enemy
chi
flooded
handle
older
tighten
missions
fueled
muhammad
skiing
armored
siege
bombed
deposed
consensus
jihad
mourning
dissidents
rica
speak
am
carriers
proceedings
eta
carbon
partly
surrender
bronze
catch
deputies
plastic
zhu
retained
secrets
cigarette
cement
mario
bloodshed
eleven
reopen
ivan
yang
##ier
framework
operate
departure
jiangsu
michelle
tainted
palestine
strict
##ate
bobby
atop
participating
urge
decisive
runoff
stabbed
blacks
strengthened
contribute
followers
restaurants
##ba
oakland
governmental
hub
fill
clark
macapagal
degree
tonnes
##nt
bulls
deciding
requiring
cape
regarding
awaiting
corn
rev
##to
guide
grip
write
centuries
##et
expressing
type
zero
##ge
liaoning
orlando
bruce
adb
underway
salt
albert
lightning
advice
lingering
studio
liberian
reject
sessions
teammate
priests
empty
founded
surface
archbishop
shape
dinner
hampshire
mean
yunnan
cameroon
yard
tennessee
##ty
achieved
mysterious
piracy
foods
summoned
triumph
behalf
communication
destroying
paraguay
dean
upgrade
tower
drilling
exposed
prevented
suddenly
yitzhak
inner
sir
sinking
strongest
crop
inventories
walt
amsterdam
dipped
spirit
library
blockade
participants
window
lethal
panic
greenspan
villa
lender
publication
famed
photo
inspections
miguel
blaze
seeing
governors
educational
loyal
woes
cattle
frontier
chess
roberto
terry
balkans
ho
usually
ownership
##ke
jong
kenneth
gray
insisting
mystery
scare
residential
salary
documentary
tajikistan
batch
analyst
territorial
cola
extreme
rolling
sang
humanity
quietly
quite
dna
commodities
seminar
pursued
tariffs
edwards
herald
conservation
processing
throw
disarm
graft
heightened
ken
posed
qualify
relatively
assessment
stewart
describing
oppose
courtroom
nv
##th
runway
decree
icon
poisoning
prepares
pursuit
ronaldo
##at
iceland
procedures
interested
mahathir
planet
topped
latvia
spectacular
strained
collected
explore
laos
retaliation
colony
qualified
narcotics
replacement
sealed
buffalo
patriots
schumacher
principle
repeatedly
insurgent
multiple
churches
hosting
dramatically
knowledge
rivers
madeleine
##ized
alpine
chose
commit
bishops
sidelined
traffickers
generally
leaves
rabin
voter
consequences
institutional
mohamad
sick
blaming
performances
prague
armenia
checkpoint
mart
statistical
spate
tightened
##ard
zones
eating
evacuate
teenagers
neck
routine
album
cardinals
ian
matt
penalties
serena
bribes
sole
deploy
else
scandals
ron
iii
arguments
diana
handing
suing
standings
performing
##ping
discussing
marred
pna
levy
saved
destroy
berth
steven
babies
confirmation
undermine
madagascar
undergoing
##io
congressman
rebounds
responding
anaheim
feeling
learning
monitors
winger
truth
coaches
promoted
assess
intention
predecessor
tore
tracking
bryant
slight
flags
mississippi
##ous
stole
supplier
twins
uncovered
columns
kids
knicks
oust
perform
slid
concessions
##ni
imposing
appointment
confessed
finances
##va
prescription
wilson
flash
surrendered
loaded
option
strife
textile
checks
counts
slowly
abusing
memorandum
tianjin
exactly
surprising
select
ucla
values
espionage
usual
formation
guidelines
tommy
romano
depression
sees
cap
ncaa
poorest
raging
##li
condolences
lagos
concerning
imprisonment
fix
suffer
weapon
persistent
avalanche
objections
stockholm
brink
clinic
gap
perry
performed
maximum
monica
sue
vicente
congolese
religion
renew
persian
resulted
consulate
dominant
happy
eliminated
harm
maliki
younger
citizenship
macedonian
prisons
regulator
ruler
dhaka
installed
wreckage
metro
outskirts
powerhouse
shake
symbol
ambitions
ashes
caucasus
lowered
prodi
notice
trained
mogadishu
parks
wal
helmut
rampage
##est
transferred
dumped
accepting
centre
lpga
hiring
spotlight
airstrikes
sustainable
bowler
crowds
experienced
bullets
category
bankrupt
examine
grown
congratulated
models
signaled
uncertain
confederation
bankers
medalist
straits
studying
senegal
directed
hague
equal
haven
investigated
pieces
alongside
disasters
farewell
tunisia
bertrand
ferrari
provisional
seize
character
gear
harare
broadcaster
ers
represent
celebrity
tradition
hair
racism
aging
sight
inspector
denying
slashed
physical
stones
discussion
chan
completing
prayers
sciences
lyon
shareholder
sub
detected
meets
posting
protected
motorcycle
actors
milwaukee
remember
volunteers
indefinitely
autonomy
forge
khartoum
yards
incoming
underwent
venue
salvage
gives
timothy
walking
ambushed
ash
sensex
croat
structure
farms
kohl
lunar
tomorrow
sons
dry
hat
militiamen
shrine
foster
notes
departments
individuals
revenge
cholera
obtain
advancing
enhancing
virgin
bbc
venus
papers
thinking
walter
vincent
kobe
newest
igor
popularity
philip
cardinal
economics
##field
franchise
routes
arctic
detailed
lisbon
nets
##no
arabs
honors
crunch
agassi
beckham
bids
hurricanes
santos
stemming
youngest
convince
critic
referee
braced
detonated
exporters
rioting
gift
nicole
strapped
article
postpone
##ize
mall
reigning
nazis
devils
engineer
warring
wealth
wings
skipper
surprised
##ca
##il
shocked
glass
museveni
protocol
quarterfinal
wholesale
##ns
contractor
russians
contacts
ignored
homer
roma
seal
solana
beauty
dealt
dumping
indianapolis
nicaragua
grabbed
moments
teammates
prophet
reception
carmaker
eager
punish
fa
obasanjo
bashar
actually
argued
smuggle
criticizing
debris
maintenance
stunned
visas
wear
alabama
component
lung
citigroup
fines
recognized
counting
roles
triggering
yangtze
atrocities
requirements
##ve
taiex
shelter
televised
abused
nick
weakening
alvaro
fred
stabilize
suspicious
##ga
bruins
kurds
torch
estrada
martial
celtic
conducting
pandemic
bernanke
holes
prayer
broker
thirty
impasse
incentives
staging
skies
authorized
pitched
transactions
tactics
tightening
##ad
dairy
impressive
withdrawing
collect
ceremonies
missouri
garcia
maintaining
plunging
bipartisan
rican
touch
olusegun
swing
amateur
drink
quarters
harassment
surrounded
braves
hainan
privatization
yahoo
bout
celtics
yoweri
##ll
mac
plus
rehabilitation
capable
honda
trinidad
wounds
ammunition
tottenham
##der
robin
swift
##ler
clock
franco
craig
wider
shipments
slovak
superstar
lasting
scholars
embassies
mob
petition
valencia
amr
candidacy
staying
extensive
preserve
stuck
text
seas
victoria
java
cloud
populous
troubles
widow
municipality
impeachment
vessels
coaching
gunned
abruptly
airspace
albright
comment
greeted
indictment
intensive
cemetery
painting
restored
chicken
happened
overwhelming
contaminated
spree
##go
intellectual
malaria
todd
issuing
pounded
raw
except
##ring
sharif
crushed
radovan
warsaw
##ner
reversing
merge
survival
karadzic
asset
fallout
repeat
sacramento
stripped
bmw
defuse
nightclub
jungle
adam
contingent
mars
mountainous
nadal
acres
condemning
salaries
dam
offense
rulers
##ding
##ging
bench
contribution
electrical
respectively
ronald
ross
struggles
wildfires
ordinary
praise
simply
claude
signaling
ad
cox
qualifiers
ditch
fortune
photos
storage
brands
refuge
allows
cameras
determination
enjoyed
landslides
marie
rubble
curfew
easter
ideas
peacefully
valuable
inmate
##lin
identify
proliferation
rays
rebellion
worry
dedicated
lined
anglo
brokerage
opposing
unilateral
advisor
cyclist
leeds
lottery
mate
fireworks
grade
laureate
robinson
##it
monaco
orbit
aristide
solo
supermarket
witnessed
canal
verge
counsel
favored
frenchman
resident
survive
difficulties
regain
retreated
stamp
tri
##ki
francois
ibm
poured
suharto
gangs
mavericks
sect
##ine
nursing
adults
historical
freight
maryland
projected
shipment
biological
dating
deeper
hectares
capitalization
expecting
##sa
delivering
extradited
investigator
marseille
accelerate
cigarettes
classified
broader
mcdonald
desire
queens
batsman
breach
jetliner
wicket
comply
openly
haul
controlling
engines
divorce
advised
crippling
rift
uygur
privacy
completely
equities
rider
valued
vulnerable
competitors
administrator
assailants
nancy
twelve
widening
clinch
dying
estimate
caution
serial
servants
essential
remarkable
borrowing
nepalese
observer
straw
deportation
donor
spots
taxi
xi
railroad
speedway
indigenous
jumping
climb
hispanic
arresting
located
wound
grenades
luxembourg
troy
matters
reversed
recording
colonial
laying
tyson
consultations
substance
fallujah
mistake
wells
excessive
snapped
##ja
derailed
paving
rejection
defenseman
alarm
commemorate
defendants
arbitration
securing
turns
hip
lions
oregon
ridden
contributed
fruit
jay
racist
blues
peso
pride
principal
austerity
commuter
goran
pump
##ff
emerge
multibillion
shadow
receiver
suggests
rattled
raul
indicating
karl
scrutiny
economist
hanging
hans
angel
expenses
smuggled
touched
manage
planted
unfair
##ville
fiat
closest
defiance
flown
radioactive
dealer
attracted
map
envoys
##wood
analysis
forms
grass
##ha
morales
frustrated
sanchez
bags
disrupt
roof
stress
defying
samsung
connected
diving
lynch
##ated
attackers
farmer
graham
muscle
prior
songs
grim
safely
embargo
lobbying
ted
aires
buenos
roster
##izing
hanoi
noon
bright
heights
unicef
feed
horn
janeiro
restart
stopping
privately
resulting
harder
tang
pioneer
tortured
deposits
generals
radar
ramadan
scrambled
slumping
associates
austin
warship
##di
awareness
endorsement
nevada
rough
##ti
ottawa
contender
liberty
parking
bone
developer
firmly
genetically
shaanxi
africans
foes
forests
humans
kandahar
smooth
automotive
client
handful
moldova
magistrate
gesture
defiant
casting
transitional
wire
hate
ultra
entrance
intervene
greenpeace
pose
turkmenistan
banker
rongji
condemnation
prosperity
breaks
gingrich
seizing
arthur
koreans
odds
origin
bolivian
cnn
cook
specific
turnover
commitments
klaus
reunification
eddie
jolted
defied
enjoy
ernesto
automatic
facilitate
jesus
talent
douglas
erdogan
murray
pitching
speeding
cotton
dominique
sized
highways
spare
guangxi
heated
overthrow
topple
trick
atmosphere
unified
conspiring
cppcc
daimlerchrysler
variety
contained
painful
gate
germans
brokered
permit
wartime
ab
circle
eduardo
rampant
chapter
confirm
designated
regret
expulsion
jonathan
sean
evasion
skills
annually
contractors
mediator
spacecraft
vaclav
guest
##me
manslaughter
shoes
irregularities
misconduct
portion
arch
christie
compatriot
nor
extradite
jorge
clay
hawaii
mild
goldman
literature
restoring
samuel
bearing
counties
po
sumatra
supervision
ranch
lone
bet
discount
palin
toppled
bears
disgraced
firmer
siemens
barriers
pesos
bed
avenue
gymnastics
ivanov
loved
martinez
shootings
turin
container
household
pataki
application
catholics
contracted
ferguson
gene
plenty
conceded
ignoring
licenses
overshadowed
hikes
efficiency
efficient
neighborhoods
walls
enable
legacy
committing
pullout
responded
##sh
earthquakes
expo
heating
cooperative
oman
greenback
stick
suburbs
avoided
environmentalists
granting
harvest
register
tayyip
delaying
dave
hinted
kelly
pursuing
sheriff
warlord
exclusive
lengthy
newt
angered
clothes
degrees
laura
lawrence
mud
oversee
stern
burma
coordinator
immunity
rifle
adjusted
besieged
deteriorating
mitchell
unacceptable
outlined
extremely
minorities
shoppers
ramallah
americas
dublin
hire
martina
romney
ec
pilgrimage
adams
fearing
reshuffle
doha
hurled
yevgeny
properties
belt
recep
##ant
costly
nissan
nominations
ouster
talked
brad
bradley
signals
hyun
lopez
seizure
proof
roh
tracks
victor
broncos
clues
kathmandu
yacht
cult
anwar
burns
files
lindsay
quell
registration
sprawling
cubs
neither
teaching
picking
##ish
leonid
originally
ward
informal
stages
dressed
ericsson
honduran
statue
timetable
coordinated
marginally
dubbed
chair
crippled
widened
autumn
bold
enemies
foiled
millionaire
oslo
warn
tip
bse
confront
farming
slower
turnout
arabian
fog
norodom
restraint
scenes
equivalent
roberts
khatami
milestone
paintings
camera
guests
crushing
libertadores
mothers
partially
yushchenko
approaching
hefty
henan
pretty
roots
proposing
spurred
recruiting
thick
viewers
fein
maybe
technological
freezing
fundamentalist
none
rein
moral
negotiated
studios
swung
walker
bull
cited
disappearance
hung
militias
successive
trainer
proclaimed
probing
sinn
stabbing
vajpayee
bag
confiscated
donate
insider
nice
jacob
surviving
unhcr
afghans
ghali
submit
diesel
movements
hutu
mastermind
##id
lights
oversight
pickup
amounts
arkansas
civic
paralyzed
stanford
adult
anderson
designate
fence
genetic
understand
bayer
birmingham
duke
numerous
campbell
metals
relative
symbolic
tuberculosis
ismail
lieutenant
quoting
renault
nokia
outspoken
operated
prolonged
shells
##mi
enterprise
mourners
sponsor
disastrous
disciplinary
mosul
purchases
undisclosed
comfortable
hun
mercedes
reds
releasing
islanders
packard
provides
wildfire
##ss
classes
pledges
shaky
shutdown
belfast
caretaker
copyright
favorites
depot
hunan
initiatives
pave
unusually
filmmaker
lufthansa
snap
treating
frederick
overseeing
rod
hedge
nervous
otherwise
sampras
switch
##ir
norman
roddick
scrap
havana
pages
adoption
armenian
encounter
bolton
conversation
dictatorship
kabila
retreat
rocks
secretly
financier
fischer
##per
livestock
mechanism
##ent
principles
escalation
passport
pneumonia
colleges
conclusion
weightlifting
##han
cameron
lakes
telecoms
wood
discipline
mongolian
elementary
frustration
shane
wracked
example
hebei
justin
zhuang
bonuses
creditors
johnny
##tor
fujimori
##ah
blocks
midwest
portland
propose
teng
alain
ambassadors
dirty
lithuanian
neal
rises
impossible
janet
gases
meltdown
architect
convened
ossetia
qian
removal
guarantees
plummeted
pointed
hubei
spur
##am
ads
consolidated
argument
eagles
eligible
examination
implementing
mitt
pearl
shrugged
atal
flagship
pack
##ps
credibility
hamburg
instability
##ot
bambang
assassinated
bordering
deny
kaczynski
removing
photographs
propelled
reward
survivor
internationally
lobby
mood
gunbattle
sabah
abuja
sniper
specialist
archaeologists
mighty
reviving
surprisingly
intensify
tone
applied
rocky
basra
beneath
spell
##ina
lech
thirds
affecting
margin
medicines
morris
unite
fiery
quebec
shaken
treason
unveil
procedure
##ze
downed
##sing
felix
hamilton
coordinate
mentally
protestors
drunken
enforce
abdel
jon
revived
lin
pedro
fledgling
monument
ratified
cellular
elements
motivated
corporations
screening
##ating
everton
hewlett
homemade
yu
##hi
lu
##line
achievements
content
yields
corrupt
namibia
kicking
modestly
ryder
wish
accession
andrei
destination
color
experimental
reveal
seeds
hewitt
leaked
angrily
arson
fee
layoffs
oval
unarmed
contenders
maine
mps
apply
lies
taxpayers
accidentally
sleep
atletico
recount
athlete
boxer
faltering
gazprom
sovereign
susilo
mitsubishi
neo
reviewing
rooms
uribe
##lo
bronx
knife
ayatollah
hksar
raced
respected
runners
climbing
mariners
risky
tale
locker
stationed
unique
yukos
grozny
madison
moderately
crises
rupees
barbara
advocate
bounced
hander
kuchma
probation
##ek
ladies
recalling
restoration
combination
proper
fun
injection
lehman
modified
betting
exposure
memories
cycle
medics
reassure
lenders
expel
tajik
yudhoyono
carlo
formerly
patent
infections
merrill
ricky
safeguard
interference
cannes
infant
trips
##ol
mini
smart
unanimous
noted
tears
collective
raged
transplant
charlotte
restrict
sailing
coordination
lock
mediation
resuming
solomon
feud
hurdles
mir
weighing
##les
anhui
dismissal
financially
hardly
precious
refuse
riyadh
jesse
nurses
servicemen
##ming
macau
roughly
volvo
intent
plate
thanksgiving
lands
shelling
cheap
pressures
gifts
hyundai
rupiah
##q
lukashenko
togo
willingness
accords
researcher
liquidity
blown
chest
guarded
hemisphere
seemingly
thompson
columbus
gm
hammer
ricardo
australians
bashir
billy
indication
initially
lure
sort
avian
detainee
drinks
##ang
bundesbank
outfielder
assassinate
edging
biotechnology
retiring
zagreb
acted
highlighted
letting
mediators
reconsider
charlie
fails
meteorological
satisfied
settling
monks
organize
passports
penguins
extremism
particular
proceed
spurs
favorable
handover
landscape
separated
convinced
findings
partisan
reagan
revival
trigger
unleashed
##ak
##ls
boxes
hide
owns
literary
rallying
balanced
editors
oau
outdoor
secular
cautiously
moore
outbreaks
silent
reformist
suspending
##ova
baht
chongqing
lazio
ming
##ise
controllers
revolt
rid
smugglers
concluding
condemn
pla
fernandez
grounded
suggestions
tung
##ped
enormous
prostitution
competitions
cote
forged
jewelry
naming
provisions
diagnosed
dismiss
methods
sadc
qichen
sergio
##ee
strokes
trader
britons
kiev
marco
republics
bissau
embarrassing
exporter
highlight
investing
migrant
resource
ballistic
holders
blockbuster
cancellation
raymond
resolutions
##ay
barrage
briefed
regained
uzbek
consolidate
hungry
location
biden
francis
##tt
beheaded
usc
colleague
counted
customer
forget
mainstream
margaret
apartheid
burden
machinery
narrowed
tire
unita
##mer
examining
install
stalemate
toy
unofficial
barring
cautioned
indexes
moo
scholar
scrambling
astronaut
bullet
drill
holed
industrials
multimillion
scattered
disperse
killers
grants
qinghai
remembered
earning
europeans
boyfriend
busiest
illicit
marcos
unpopular
consulting
forecasters
lincoln
reactors
##well
cheered
nawaz
subprime
akbar
choosing
orchestra
sharks
shirt
volumes
introduction
addition
applications
merchant
unearthed
admitting
copies
error
failures
globalization
reeling
spark
considers
generated
potter
murdoch
ruins
sahara
spin
uniform
##au
epic
gbagbo
hsbc
jung
transmission
##age
colonel
washed
engage
homeowners
turner
warships
derail
zuma
amounted
unconstitutional
##sed
clearly
sprinter
channels
flowers
interrogation
pornography
administered
becomes
symptoms
defendant
galaxy
thriller
ajax
keith
sebastian
tenure
pharmaceuticals
virtual
##ial
andres
rupert
slim
prop
prosecute
sachs
samples
aston
premiere
pti
township
skin
turnaround
eat
kazakh
normally
strategies
emirate
upward
##ron
ham
kidney
winston
brawl
nile
yi
communists
forestry
generations
wooden
##be
assaulting
compensate
knockout
networking
succeeded
utilities
deficits
marion
cole
divide
finds
mistakes
dancing
hurdle
matthew
suggest
thinks
alitalia
carefully
buyout
devoted
martha
patrols
regulate
fifteen
crystal
exported
lleyton
wary
wisconsin
algiers
apple
auckland
confidential
factors
moi
moussa
voluntary
approached
audit
beaches
dominate
professionals
singing
hudson
kumaratunga
steam
zurich
glenn
italia
guatemalan
pardon
##ham
abkhazia
aggression
completion
handled
volcanic
ensuring
honorary
intercepted
legally
airstrike
arrangements
chartered
confirming
nationalists
poet
sentencing
tap
##bo
deadlocked
mix
##king
baseman
disappointment
chandrika
gallery
keeps
priorities
va
buildup
telekom
weeklong
certainly
combating
councilor
happen
punished
twist
cruised
fundamental
halfway
stressing
violate
##ger
brett
megawati
##way
botswana
evo
ducks
horses
ivoire
opium
viewed
addressed
blind
overturn
atlantis
capped
grab
tools
takeoff
toys
augusto
deliveries
dynasty
petrol
tunisian
##rd
devil
achievement
escalated
jitters
ringgit
ubs
flyers
label
tsvangirai
warriors
childhood
moody
cal
composer
forty
iaaf
propaganda
calderon
courthouse
halting
sheffield
shutting
sultan
manmohan
yield
batting
evil
lifetime
wheel
wrestling
##ries
addressing
advocacy
downing
dust
mandatory
shanxi
theory
aluminum
properly
soybean
elimination
lionel
celebrities
cinema
repatriation
saakashvili
calendar
crush
disclosure
restricted
slipping
eliminating
furious
pet
posing
randy
regarded
solutions
zanzibar
##chi
##red
donation
mauritania
pkk
toughest
##im
assists
cracked
mph
roc
##berg
owing
leon
uss
##ary
##ker
harper
ore
surgeon
swiftly
wfp
casualty
endorse
recommendations
perez
tumbling
attitude
floyd
kampala
powder
turbulent
##tte
admission
blake
cypriots
hitter
madoff
reaches
vacant
##za
barroso
di
interviews
branches
complaining
daughters
dominance
fat
invested
lloyd
pinochet
queensland
##ide
danny
grammy
implicated
industrialized
pretax
warfare
##wa
cathedral
skeptical
warehouse
waving
deemed
postwar
complications
ed
sounded
specialists
tackling
demonstrate
kyrgyz
##fa
##un
integrity
migration
superior
thieves
column
debates
hunters
iaea
predicting
rafah
adopting
assurances
antara
chronic
improvements
incursion
masked
publicity
caracas
debated
elena
parole
rafik
stiff
tide
##ong
acquiring
represented
revered
developers
homered
lab
offenders
rankings
ratify
yangon
slaughter
sumo
##sen
financed
briton
diabetes
heroes
drafted
bolstered
graduate
isolation
thirteen
facebook
introducing
nominees
##ical
dispatched
marshall
spike
dangers
expense
bracing
dengue
listing
novelist
separation
dhabi
actively
array
horror
readiness
rifles
unemployed
communique
downward
laborers
avoiding
hybrid
soul
branded
floating
nablus
rob
engulfed
inciting
outpost
costas
dealings
leaking
mineral
quotas
fortunes
garbage
mp
nicaraguan
silicon
##ally
clergy
latter
volunteer
concentration
executions
icc
opposes
scam
authoritarian
fiction
obstacles
taichung
##ana
leaning
nerve
porto
root
transform
ana
exhibit
hwa
metres
satellites
bitterly
commanding
anxiety
glory
predominantly
satisfaction
tighter
dale
embrace
counterterrorism
qantas
signature
tires
hijackers
indo
ace
hearts
railways
relegation
archipelago
flurry
zairean
attracting
burn
convene
greatly
rout
tender
judgment
radiation
observe
strongman
features
readers
sven
richardson
riders
bottles
osce
rolls
totaling
##que
dismal
embezzlement
entrepreneurs
tool
undermining
ralph
dolphins
helen
highlighting
lt
undercover
bethlehem
chiang
fisheries
insulting
motorola
suns
##dy
gansu
gorges
plight
swimmer
alfred
assigned
circumstances
dreams
employer
spotted
substitute
tripoli
chaotic
hitler
lodged
ultimately
amendments
bucharest
collecting
furniture
hilton
shifted
sweet
##ev
cavaliers
credentials
finalized
forensic
mecca
nurse
papua
psychological
woo
feels
harris
mofa
minh
reflect
restructure
rockies
sofia
bizarre
booked
lackluster
plead
recruit
pretoria
sail
wade
deng
invite
routed
spaniard
acquisitions
cabin
frequent
luck
mogul
adjourned
beautiful
whatever
contemporary
dismissing
nose
##ious
aaron
biathlon
canberra
eggs
insurers
providers
ashcroft
cohen
organizer
rarely
dump
offenses
pivotal
planting
profitable
##zed
anne
shifting
videos
##ization
anxious
healthcare
likud
symposium
passes
polio
pradesh
disappointed
mercantile
sand
tiananmen
articles
comic
legitimate
provision
marcus
rhetoric
stockpiles
colo
gradually
taste
depressed
benz
brotherhood
raiders
sophisticated
##nce
aggressively
davenport
investigative
aiding
airplanes
chretien
clerics
gender
populated
unification
contention
paint
scandinavian
stomach
tomb
confronted
dismantle
existence
guided
crowned
honoring
proud
resist
weary
arrivals
blackburn
brushed
hatred
operative
panamanian
placing
billed
clouds
graves
hunter
##out
chee
chernomyrdin
italians
mercury
burial
intensifying
nuri
##ky
wielding
length
sailor
##zing
resorts
wright
myung
tribe
workshop
difference
enlargement
lion
##ou
deepen
iranians
nearing
oliver
phillies
mali
srebrenica
ups
uses
##iest
catastrophe
oath
steal
bridges
jennifer
miner
pressured
curbing
painted
recommend
safer
transformed
comedian
commandos
dell
malcolm
quarantine
henin
ultimatum
associate
bremen
deepened
dong
estonian
golfer
heilongjiang
secretariat
cleaning
jeffrey
meaning
reinforce
wiped
confusion
convincing
cooking
feeding
counterfeit
##bi
##ists
herzegovina
motorists
musicians
rebounding
requires
firearms
ha
kilometres
rushing
##ai
distributed
owen
pen
shah
zelaya
correct
requests
bacteria
cracking
deliberately
robbed
parker
rok
shirts
welcomes
wishes
chairwoman
primaries
purchased
blueprint
characters
ferdinand
fifty
gerry
legs
accompanied
brewer
cheering
chickens
governance
justine
lap
reluctant
toured
workforce
assisted
ceiling
disclose
engagement
botched
eruption
revealing
slashing
unesco
##house
alps
jia
lra
nights
##ino
blowing
denouncing
geological
jane
aegean
explanation
gul
santiago
ventures
##up
##vic
crashing
dress
fourteen
kibaki
sinai
background
borussia
captive
clijsters
lieberman
mediate
method
represents
siberian
susan
drafting
foul
gabon
kronor
liberties
lie
roared
anticipation
downgraded
liquid
starring
afford
conventional
looted
unpaid
stuttgart
universe
wei
##tz
departed
ghraib
hingis
reliance
strange
digit
gandhi
preseason
tying
chiluba
enthusiasm
ministries
respects
achieving
deposit
kilogram
productivity
scaled
##nd
bowling
eduard
havoc
cooperating
huang
situations
spectators
jamaican
latvian
midst
improperly
lima
fitness
shrinking
wizards
##ji
relevant
##bly
capsized
committees
lane
ontario
owed
flotilla
freddie
mansion
maradona
pavel
programming
thanked
##cy
hanged
jockey
max
packages
respective
astros
basin
divers
expires
limiting
loose
purpose
substantially
chanting
impending
makeshift
manufactured
rudd
warrants
displayed
indy
rank
unauthorized
gong
prizes
robbers
guaranteed
mwai
balls
concept
steadily
consultant
desperately
experiment
islamists
occasion
##ms
guardian
najaf
oracle
##den
assumed
backs
didier
exploring
jails
lease
whale
caspian
dortmund
eurostat
indefinite
detective
gadhafi
linebacker
theaters
arrives
hughes
kenny
marlins
maurice
minibus
stimulate
accelerated
cat
gays
md
bones
carnival
pastor
pointing
sixteen
craft
estranged
gamble
ballet
distributing
dwindling
stops
uruguayan
sum
dug
sayyaf
commuters
copy
decreased
farc
chambers
foe
##ney
##ow
merck
punjab
artificial
drunk
factor
gonzales
lesbian
sabotage
stretched
audiences
knocking
appropriate
associations
beloved
felony
mortgages
portfolio
tape
touted
admit
maiden
pipe
shaking
equality
jazeera
bonus
exceeded
mayoral
showcase
glimpse
insists
pleading
slovenian
tired
julia
novak
squads
tobago
bosses
detectives
disorder
footage
lusaka
observed
drifted
homicide
wonder
christ
disrupting
exxon
harlem
tragic
burmese
complicated
finger
towers
consolidation
lists
luther
moammar
nationally
nouri
publish
suppliers
telecommunication
unspecified
weaken
kirkuk
mae
pablo
tolerance
ton
##he
advances
approving
dismantling
inspect
jilin
moratorium
supplying
hafez
laboratories
reliable
battery
cartoons
leagues
parked
reno
badawi
improper
franklin
pakistanis
darren
destined
iconic
likes
seaside
equipped
hijacking
provoked
generating
shutout
abortions
fulfill
kitchen
rounded
stream
types
catastrophic
dayton
enjoying
episode
kamal
metropolis
spilled
bargaining
generate
lahore
reminder
speedy
touring
##ds
annika
decrease
germain
gripped
obligations
shelters
dates
guyana
rings
##em
entitled
joy
marriages
clubhouse
inevitable
endeavour
mills
runaway
speedskating
personally
steer
##ul
hammered
patrolling
sliding
convert
mourned
turks
wrongdoing
##ving
gotten
nanjing
operational
arap
margins
phnom
resigning
brewing
emir
icy
idol
keen
raises
repairs
hushen
permits
sympathy
backdrop
cheaper
ultimate
capturing
knight
sorenstam
deliberations
households
lowering
reopening
robertson
sana
scenic
sheik
thwart
##mo
canadians
sebastien
tours
trademark
pierce
expression
flowing
helm
kurdistan
approaches
filling
mutiny
protracted
siberia
appearing
conclude
flagging
flower
icrc
petrochemical
cos
fueling
kyoto
vaccines
##ded
aligned
implemented
lockheed
mclaren
multilateral
shaquille
slip
competitiveness
evans
justices
suspicions
touchdown
traditionally
capping
contamination
folk
middleweight
opposite
tall
tariff
bans
embarked
passion
reign
tipped
hawks
sheep
briefing
eventual
fights
graf
nashville
orioles
renegade
ritual
tin
bangguo
barracks
bourses
dividend
consideration
cruz
instruments
penh
pioneering
snatched
carpet
conn
freighter
identification
pink
sufficient
tinto
cartoon
halftime
transparency
acknowledging
divisive
arabic
employed
examined
infamous
pensions
rode
sleeping
thus
daimler
doug
madonna
praising
repay
su
undermined
unmanned
appoint
minds
assume
conductor
garment
hostilities
secondary
aired
clinical
lavrov
neill
prostitutes
villepin
##by
anglican
cambridge
overwhelmed
boca
cent
errors
fares
publishers
rugged
tally
venice
anonymous
aznar
marry
psychiatric
realize
wipe
clippers
flame
inadequate
rasmussen
secrecy
sounds
totaled
dar
organ
pistons
pork
subscribers
##hua
derek
elephant
installations
lockerbie
skier
urgently
##burg
aerial
clinics
es
montana
museums
presumed
rated
sensation
bordeaux
drag
invitational
compact
magazines
overcoming
saleh
diet
distribute
nam
nuggets
reid
supporter
youngsters
rabbi
reorganization
yes
bahamas
colorful
descended
grocery
interpol
jiaxuan
nicholas
purposes
grace
pigs
rooney
delicate
obstacle
oriented
petra
walkout
cafe
forbes
reunion
jamie
sickened
spokesperson
belief
components
dae
eriksson
everest
faithful
internationals
manner
nobody
renewable
slayings
slogans
demolished
dissent
valentine
##ned
##shan
abandoning
fu
nixon
solving
defenses
dissolved
freshman
liver
looting
midway
monitored
yankee
brilliant
brunei
height
isaf
kicks
malta
russell
winding
expedition
indicators
mayors
monarchy
outfit
sisters
gerald
initiated
middlesbrough
prone
rogue
techniques
##sy
courses
drastic
journalism
rigging
romantic
shevardnadze
unseeded
lien
photographer
shoe
worshippers
chains
dispatch
glasgow
tossed
addis
sponsorship
acceptance
anc
participated
poison
shelves
du
heathrow
oecd
purchasing
speeches
stampede
adequate
flared
juvenile
opel
swap
catcher
chasing
negligence
spears
##ber
##zi
attached
campaigners
capitals
gaming
pacers
rammed
saves
##vin
dragging
gubernatorial
jeremy
tomas
trends
willie
dire
neil
refrain
rogers
grid
gujarat
regularly
shipped
smallest
##vi
fold
steroids
synagogue
grouping
instant
naked
anchor
monarch
royals
smile
thierry
credible
eradicate
flawed
havel
qatari
backers
bak
constructive
credited
murderer
nightmare
peoples
poses
cheng
cubans
forging
youtube
anywhere
aware
franc
patriotic
pit
reclusive
transaction
acclaimed
feuding
permanently
steroid
uniforms
##rt
archdiocese
diamonds
guillermo
heir
pelosi
tournaments
arrangement
broadcasts
converted
punch
substances
trim
abduction
oscars
plug
##ft
##ised
bullion
ebola
gcc
inched
puts
sagging
upgraded
bolstering
busch
kadhafi
newborn
shrank
coins
concentrate
lesotho
lessons
locations
patriarch
reference
##rin
answers
earliest
headlines
paula
poles
undefeated
venues
wikileaks
ahern
diocese
seasonally
spirits
xiaoping
brings
liners
sights
dame
darkness
entirely
faso
ignore
mosques
slapped
thwarted
vojislav
admiral
khamenei
scorer
slum
vivendi
affirmative
helps
jonas
observatory
panda
random
revelations
simmering
ababa
antiquities
creative
tune
##ye
describe
outlets
salaam
backlash
cd
clinching
ebay
magnate
mercosur
minors
panthers
samoa
subdued
ager
banner
casey
finalists
guild
inland
jiangxi
cluster
interrupted
modernize
provocative
blatter
goalie
hotly
lao
philippe
pig
treatments
andean
countryside
hazardous
packing
timing
integrated
relics
suits
deploying
phelps
presided
statewide
tribune
##tta
coveted
featured
suggestion
klm
waging
##back
##ver
bleak
dominating
mend
pumping
undp
##ities
##maker
beverage
contests
doubling
eads
falcons
historian
profitability
prostate
rudy
stormy
debating
duncan
grief
defamation
elbow
trades
werder
wrist
caucus
trash
workplace
##ford
##ran
buyer
cats
fertilizer
interstate
inviting
lucky
socialists
spat
rebuffed
rent
unclear
##cing
andreas
hurting
metric
punitive
reductions
skidded
burkina
hottest
physician
pocket
default
influx
inventory
jammu
mexicans
skip
administrators
attributed
breakfast
cache
choices
jenin
arranged
blunt
catching
connections
dakar
faulty
favors
filipinos
stave
tbilisi
tornado
whales
cathay
famine
innovation
pills
turbulence
##ria
liaison
prompt
salim
stirred
wbc
afc
chocolate
dioxide
organs
podium
##bs
allocated
freedoms
hashemi
professors
wreck
zhou
adrian
bicycle
graduates
lots
predict
vault
belarusian
logistics
observation
schoolchildren
spinner
stuart
tumultuous
##ud
advertisements
disruption
heavyweights
mcveigh
sailed
##tan
assaulted
baker
bargains
eindhoven
marching
mtv
procession
shouting
trailer
##om
comparison
fractured
pleased
selective
switched
timorese
topping
unveiling
concacaf
ernie
generale
moussaoui
ratification
auschwitz
bribe
collaboration
refineries
suez
sulawesi
cooling
downer
rooted
sabres
shillings
##tive
depth
jse
mudslides
painter
patience
pouring
rivalry
worsened
##ors
devastation
lied
liquor
lovers
rig
senegalese
veterinary
dusty
equatorial
slave
bogota
intimidation
mel
neutral
welcoming
forever
implications
juniors
##so
elusive
semitic
stated
##ning
imagine
stevens
suisse
wondering
##tic
accelerating
affiliate
attendance
llc
onlytest
psv
trio
tripled
turf
yao
absolute
alejandro
collapsing
competitor
explorer
presenting
welsh
erik
kinds
raft
sting
till
curtain
nonprofit
bertie
doomed
kirk
miracle
mobil
priced
canceling
considerable
lisa
underscoring
amend
breathing
cliff
dalian
fairly
generic
relentless
starter
abolish
banco
enhanced
helsinki
portrait
rubin
shark
tabloid
##head
assembled
circulation
guizhou
justify
loud
rene
stamps
wore
gala
midterm
ansa
bhp
eritrean
maneuvers
dual
totally
adventure
appealing
backup
bollywood
checkpoints
dos
lavish
outcry
sung
amelie
anders
contributing
fare
labeled
patch
detect
lawless
manufacture
privatisation
smoothly
vanished
editorial
graeme
lighting
disqualified
moro
ga
indicate
moamer
musician
uk
yale
##day
beshir
lesson
massacres
thrilling
anbar
cave
clarke
fortified
imperial
installation
phillips
populist
zacarias
##bank
##ell
aground
brewers
constant
faded
monte
poisoned
scoreless
shortfall
##pa
audio
chef
economically
embryonic
lit
pairs
print
realized
visible
comfort
heartland
surpassed
agers
dagestan
enduring
exodus
freely
gabriel
heels
locally
luggage
mention
personality
sec
telescope
alike
asserted
communism
myers
nebraska
societe
vermont
attraction
confronting
duo
elephants
endured
golan
manhunt
monsoon
parcel
reinstated
artistic
brisbane
durable
fugitives
fulham
recommendation
relieved
shedding
sponsors
swaziland
volatility
##ks
##wan
deportivo
disposal
hardest
joschka
smokers
assure
bust
denis
gauge
lanqing
punishing
stark
yorkers
zia
bottle
classroom
eyed
kurt
tidal
traces
voyage
attendants
dampened
hercegovina
jaffna
kid
knock
misleading
neared
prospective
##ini
disruptions
hashish
rage
recalls
somewhat
taxation
aol
giro
mo
pleas
quota
renewing
speculative
adelaide
animated
ann
docked
facto
holiest
quartet
sihanouk
await
charities
gloomy
innovative
primarily
skepticism
wet
binding
conflicting
denounce
fao
farmland
fraudulent
repatriated
requirement
saga
wnba
##gs
##ties
boycotted
embroiled
extinction
listen
matched
possessing
sepp
steffi
burundian
croats
database
deport
episcopal
sacred
bury
firmed
hasina
porsche
revoked
##lia
digging
gustavo
intend
revamp
sunken
tent
throne
weigh
worldcom
##sk
breakdown
dome
marat
padres
rebuke
robbie
destinations
diamondbacks
lend
marcelo
organised
recruits
scarred
steelmaker
##ik
##ut
banana
captivity
concerts
distributor
eagle
registering
symphony
taught
##more
cheating
checked
contempt
pfizer
premium
broadband
mwanawasa
relating
retrial
reviews
trafford
##isation
checking
engaging
hardware
invaded
promoter
proving
referees
squeeze
thigh
ecuadorian
jelena
netted
paralympic
racially
tanjug
dismantled
exceed
paulson
sergeant
alarming
convictions
cousin
expired
regard
rita
##let
##op
bulk
enact
groundbreaking
muqtada
safin
xiamen
##hip
solved
tainan
##yer
ablaze
butterfly
mauresmo
rental
sharemarket
embraced
entrepreneur
renewal
shelled
assaults
becker
dressing
fannie
offerings
sevilla
spoken
whitewater
zhaoxing
artifacts
buffett
classical
detaining
abn
asif
brigades
fundraising
liquefied
reputed
revise
strains
##ward
fading
frequently
growers
ages
breeding
distant
falun
trent
boarded
inch
justified
lobbyists
memphis
navigation
portsmouth
predictions
beverly
bloodiest
hamstring
notably
stumbled
collins
hampered
mergers
motherland
sterling
barclays
chased
parma
pill
reprieve
waged
certificates
chun
dock
jays
marxist
mekong
pirate
pregnancy
ugly
visitor
birthplace
humiliating
hunted
mickey
teach
voices
##ara
##town
casinos
cristiano
procurement
spitzer
##ick
alleviate
annette
bare
coordinating
digested
franz
han
infectious
jin
lobbyist
rao
saints
salmon
shores
muster
rafsanjani
ratko
scope
wenger
containers
emmy
fahd
ghanaian
rainfall
seles
shi
wives
##yi
amro
clearance
opted
ramirez
bnp
bruno
castle
clan
khalifa
lewinsky
medication
pattern
tunis
extent
harmful
karen
lasted
mladic
premature
programme
prolific
racketeering
unfairly
wrapping
arsene
elian
logging
pipelines
pontiff
portrayed
quitting
referred
sonia
##lli
ashore
bow
demolition
nazarbayev
searches
transporting
treasurer
##ess
##ho
##si
cream
cure
drastically
mistakenly
supplied
tonga
wrangling
attacker
blitz
dig
evaluation
everywhere
heal
locals
refuses
swollen
timber
aided
basement
bias
prayed
severed
stricter
tribesmen
continuous
correction
courage
djibouti
reviewed
swim
topic
aqsa
bengal
deter
diverted
fiber
reservations
##zhou
apologized
britney
caucuses
downs
scrapped
spared
transformation
bryan
lauded
squash
surfaced
benin
corpses
finale
khaleda
qinglin
underscored
uproar
accusation
appearances
broadly
recruitment
sukarnoputri
svetlana
aspects
astronomers
compliance
confederations
ferrero
hopefuls
lou
plague
thank
##pe
finalize
leverkusen
molestation
nursultan
phenomenon
ramon
settler
throat
blazers
buchanan
libel
outraged
taxpayer
welterweight
alarmed
bahraini
chorus
enacted
illnesses
mill
policymakers
reforming
shocking
stefan
aboriginal
bypass
depicting
negotiation
nominating
ransom
repression
capabilities
cleanup
commemorating
contracting
penn
projections
yassin
adolf
chronicle
dip
discharged
exploitation
hop
hsieh
misery
printing
smashing
##ram
kinshasa
papandreou
protections
reclaim
refining
sits
##gen
azerbaijani
brush
combine
schalke
crashes
designers
edmonton
inject
kroner
lover
presiding
repeal
##ano
attractive
auctioned
catherine
guidance
prized
shrink
alzheimer
asa
infringement
oprah
treasure
##ball
bihac
damon
delegate
eliot
forgotten
junk
missionary
rafiq
syndicate
yearly
bucks
fina
gallons
innocence
prosecuted
rahman
benefited
blistering
dependence
matching
supervisory
andrea
cheer
consultation
fielder
hi
ignited
manny
patriot
screens
somewhere
winless
##ched
bowing
mails
monster
ruined
tallest
versions
alonso
awarding
bands
fanned
matchup
shortened
campaigner
commissioned
cubic
goaltender
kinmen
temperature
warmup
##tone
bread
burgeoning
tents
indications
interfering
polar
tapped
##llo
aggregate
balloting
chernobyl
choppy
diverse
hull
instructed
mr
obesity
steering
watson
##ising
##logy
candy
importing
renovation
stadiums
sunny
flashpoint
moqtada
rowing
ruth
autopsy
balloon
canyon
sanctuary
drugmaker
flocked
launches
medicaid
remnants
sticking
tribes
battlefield
bihari
cesar
ecological
enters
pc
plaza
preferred
reserved
semitism
tome
tumor
##ves
accidental
djokovic
khodorkovsky
kostunica
pa
relax
trailing
wolfgang
##lla
##ny
acre
airborne
countrywide
mindanao
outright
physics
ridge
secretive
##ily
##ite
affiliated
alessandro
hamad
plains
succession
swimmers
wallace
clemens
delegations
diversity
elaborate
hernandez
holbrooke
kickbacks
merely
worn
zoran
##mann
allegation
boards
draws
experiments
juppe
plotted
secession
violates
websites
bets
breath
disagreement
duma
indicator
josh
verizon
vying
format
practical
zapatero
alexei
authors
averting
extortion
fault
inches
object
overcrowded
overdue
persecution
voluntarily
evaluate
mammoth
sore
tracy
brick
circles
inflicted
manned
peacemaking
submarines
underlined
wellington
##uring
ecowas
kent
maldives
moslems
odd
reynolds
torched
##med
##ral
engineered
flexibility
grandmother
interfere
jackie
pricing
vegetables
appetite
battleground
concerted
disagreements
doh
guarding
julio
leather
recipients
romance
duck
elder
excellent
johan
plutonium
teresa
wolfowitz
##ably
antarctica
archives
argue
reed
rely
strongholds
tumble
define
mao
opinions
outlaw
##ering
coa
delaware
demonstrating
indoors
lightweight
notre
sullivan
canterbury
combatants
gunships
homosexual
kumar
mourinho
springs
standstill
tenth
bible
bodyguards
breeders
descent
domination
gloom
occupying
sacrifice
spies
desk
notion
pageant
solemn
##ric
brisk
egyptians
experiencing
orbiting
reflected
studded
coyotes
deserted
facts
fundamentalists
homosexuality
jumbo
pile
postseason
relieve
sevens
tightly
airliners
cockpit
columnist
flexible
oic
ruud
stirring
##don
asx
chevron
cosmetics
lucent
pulitzer
restricting
chart
circus
embezzling
jeopardy
mechanical
packers
pistol
##van
ariz
clarify
compiled
reunited
steelers
button
rainy
yearlong
billiton
idaho
legality
namibian
pockets
salman
strauss
torturing
##din
##ening
##lu
affirmed
canary
cloning
dvd
leap
oceania
pt
radicals
shiites
touching
connecting
defenders
ethical
fuels
garage
lebron
relaxed
resurgent
separately
applying
bermuda
carries
cheers
coastline
exposition
languages
menem
mock
teeth
tentatively
kashmiri
koizumi
kuna
mired
noticed
outline
paraguayan
slavery
stoppage
stuffed
technique
wba
worsen
enabling
gibson
trump
abraham
approximately
censorship
depleted
fiercely
hood
leonard
licensing
masterminding
olympiakos
pray
breached
detail
infants
primakov
reversal
trounced
wisdom
minded
wanting
##ac
arrange
authorizing
hormone
calgary
daring
daytona
fidelity
generous
hail
objects
alter
birdies
funny
gearing
newark
sections
snapping
travels
birdie
brien
commons
coroner
eighteen
insufficient
obvious
panathinaikos
reservoir
songwriter
theatre
transparent
tuition
typical
##gy
cornerback
costing
remainder
spencer
accuse
bowed
bowlers
budapest
emphasis
hovered
intact
landmine
listening
publications
tankers
##and
defy
insist
involve
kirchner
knowing
linda
murphy
onslaught
pardoned
pianist
questionable
##ged
countdown
natal
stinging
domingo
lhasa
pupils
rocker
rover
santander
sprained
undersea
vetoed
##res
anew
armenians
belonged
converged
festivities
junichiro
misdemeanor
reply
serves
skiers
upgrading
versus
charred
chuck
lindsey
revision
selectors
towering
treasures
unannounced
bailey
bristol
faculty
hostility
jerome
lately
shortstop
toshiba
webber
cart
commando
mickelson
mortars
pounding
sotheby
termed
terrible
changchun
climbers
contrary
exceeding
geithner
ike
lara
nguyen
seventeen
southernmost
vieira
assam
bedroom
burnt
clad
disgruntled
jittery
noting
prefecture
prosperous
reminded
rotterdam
signatures
strikers
##long
allan
broadcasters
duel
incomes
institutes
mess
ningxia
preferential
spirited
vs
##tes
bounce
champ
cisco
drops
enforcing
exist
jeep
qualification
seller
sheet
whitman
alcatel
countrymen
dissolve
freeing
haitians
johansson
teamed
thorny
campaigned
coruna
discover
doses
micro
novels
postponement
rigged
rotating
sicily
tata
wrap
evolution
hackers
harold
specialty
telephoned
cyber
harmony
kai
modernization
rashid
reassured
##py
##ure
asserting
ecstasy
recruited
seasonal
slick
winfrey
##ct
##ea
difficulty
earmarked
keys
brazen
cricketers
folks
inspected
upsurge
##ec
##kov
apartments
baggage
crumbling
exempt
geoff
grueling
intentions
juergen
truly
clandestine
dakota
decides
elvis
ing
philips
preparatory
recognizing
setbacks
##ok
behari
dirt
disarming
ellen
grandson
handball
joel
ousting
playwright
rear
scathing
##ters
categories
comesa
gerard
meteorology
newcomer
toledo
##ified
challengers
fronts
hell
perjury
regardless
universiade
wahid
centennial
disc
ibf
joke
kafelnikov
kgb
parliamentarians
reinforcements
rotation
thrashed
underwater
##sson
##tti
capability
kph
parallel
payroll
perth
rejoin
acceptable
aeronautics
habitat
load
measured
mere
mourn
paolo
pitchers
proven
coma
concession
equalizer
exotic
feelings
hornets
likelihood
stabilizing
toddler
wrecked
amtrak
exam
jemaah
reconnaissance
sometime
thunderstorms
advertisement
bhd
daewoo
exploit
gustav
outer
roland
weld
##kin
bonn
flows
horrific
minerals
operates
reinforced
snowfall
##ola
anatoly
compulsory
defined
den
enriched
environmentally
merchandise
ryanair
zarqawi
##hu
##ura
abidjan
acid
aleksander
bode
budgets
creator
depend
manning
nextel
vaccination
videotape
##che
authorize
bullish
cables
christianity
der
premiums
regrets
simultaneously
speakers
sustain
update
##ions
elders
julian
milf
plain
presentation
protective
slew
buffer
chadian
czar
definition
dogged
homage
hsiung
icelandic
lining
pascal
trek
trevor
##nes
compatriots
frame
holland
hoop
multimedia
nominate
publicized
sunk
##water
excess
hindus
medallist
narasimha
recommending
simultaneous
streamline
subsidiaries
trichet
arlington
borne
inspiration
peugeot
rossi
seniors
tube
yonhap
##one
admits
caps
collections
els
froze
monrovia
operatives
sixty
trace
wolf
##mar
bombardment
chengdu
figured
longstanding
##making
collar
defused
groin
kagame
loyalists
reelection
rematch
##hed
accuses
blackout
ear
harvey
henri
lesser
louise
spite
sporadic
sunderland
taekwondo
thorpe
vicious
##ance
##worth
amy
automobiles
cc
ecb
moea
monthlong
nan
saarc
stringent
xu
##lt
brigade
canadiens
cholesterol
drum
durban
jaap
royce
addiction
emergencies
fantasy
garry
islamiyah
mccartney
pirated
responsibilities
unhappy
andersen
antarctic
bore
chung
indonesians
kouchner
pfp
reliever
selloff
studied
subsidy
testifying
unnecessary
##sm
##tar
factional
freeway
labels
marino
sideline
thoughts
tutsi
voicing
##ence
##gan
construct
dose
drowning
ethanol
formidable
highlights
immune
swath
vegetable
amir
bodyguard
breakup
goodbye
govern
interactive
kraft
nike
permitted
##lle
##rn
champagne
ethnically
homosexuals
math
plots
robot
rogge
skopje
warne
##port
##tter
absent
buckingham
hailing
obtaining
performers
profound
##jiang
affordable
compaq
fta
inflationary
kwasniewski
physicians
playboy
resistant
toppling
tsang
verbal
zardari
boarding
confined
dynamic
nowhere
theo
therapy
colon
ravine
spacewalk
allawi
aretz
arising
bike
breaching
maize
oral
pot
remembers
risked
tracked
abrupt
beefed
continents
defected
edgar
piled
uneasy
##ani
activated
companion
gardens
geared
haas
shipyard
absolutely
altitude
congratulations
elbaradei
oxford
reinstate
roche
structural
unlike
zeng
aden
airwaves
butler
clout
hepatitis
kidnappers
leveled
meals
revamped
sacking
tame
thorough
##sky
banners
clamp
credits
everybody
forth
golds
jackets
mci
tan
appreciation
broaden
daunting
dragon
exhausted
filming
poorly
specter
wash
aquino
crossings
lacklustre
rhode
underlying
wbo
##ez
##ip
downplayed
floodwaters
hangzhou
memo
pumped
shy
smiling
sprayed
stuff
upscale
##ert
##ten
##ual
blessing
boundary
caroline
chilly
directorate
donovan
mkapa
na
plenary
uncertainties
cooper
karim
maputo
meal
perot
spiraling
strive
swat
tractor
transferring
usher
##ons
drills
josef
kenyans
kun
trawler
wigan
baron
bruised
bulldozers
connor
contains
fend
harshly
imam
nec
potent
reactions
relationships
sandra
spector
wallabies
centrist
libby
meddling
needy
notified
polo
rebellious
saharan
topics
benfica
commercials
downgrade
frantic
greens
huddled
masks
ordeal
patrolled
picks
polluted
subjects
thomson
wesley
wuhan
##zo
defeats
horizon
jeopardize
ji
marketplace
noise
barbados
gateway
heinz
montgomery
nasser
pudong
reggie
talented
whereabouts
belmont
elevated
embark
emile
intercontinental
liability
purported
putt
shaping
shattering
starr
symbols
tearing
##ue
blackwater
outlining
representation
specialized
worrying
carol
decorated
groundwork
ligament
plantation
rim
soup
strictly
##ets
chissano
dashed
jefferson
shadowy
shawn
zedillo
abacha
abdurrahman
convict
earnhardt
evangelical
expertise
jalal
organic
sunshine
##iro
##ology
addresses
blanket
destabilize
discovering
dividing
escalate
expectation
guitarist
halls
lacked
redskins
shields
twitter
vocal
whites
bent
brutality
defunct
editions
kodak
medley
publicist
sas
sewage
warlords
architecture
basket
corinthians
cows
fossil
harrison
humor
iverson
judo
osaka
thrashers
undocumented
whaling
yielded
excitement
legitimacy
rauf
surveys
accordance
cruel
laser
moldovan
rang
raped
resurgence
roller
sink
spray
wb
excluded
haider
leicester
lords
mismanagement
peers
reckless
remake
vigorous
zidane
anthem
apology
comoros
fisher
fury
peer
roosevelt
sani
##ery
##las
##shi
##tation
academics
charitable
eur
identifying
outsourcing
sammy
sensational
travellers
unconditional
##her
##ible
oilers
significance
singled
strasbourg
amended
biotech
dived
nerves
perpetrators
bud
destructive
determining
fashioned
fatalities
gyanendra
hydro
merchants
posters
stir
christine
departing
frenzy
gradual
indirect
molesting
moshe
nickel
springboard
abhisit
auditors
curtail
gunshot
herve
karbala
northridge
upstate
##eon
corridor
lawn
uphold
wilderness
wrongly
barnes
clampdown
disturbing
dive
eagerly
expos
gibraltar
joaquim
lifeline
lindh
outlying
transmitted
eid
experiences
morale
swearing
teens
##po
cologne
consistent
correa
exiles
fiorentina
hideout
interviewed
peaks
ruble
subversion
zinedine
##yan
ambulance
cannabis
cannon
conversations
gunbattles
kahn
mou
partnerships
saab
starbucks
viacom
whistle
accomplished
charts
featherweight
flamboyant
headline
kinkel
mobutu
monk
palermo
reuters
afraid
armies
mice
min
nippon
retaining
sample
southampton
technicians
##lon
archaeological
bandits
charlton
colts
forcibly
helmand
injected
kwazulu
mitterrand
qingdao
rey
simitis
soaked
staunch
##dor
embryos
lennox
manual
occur
sanitation
bilbao
dinosaur
ejected
holmes
panels
sneak
talabani
careers
carla
keane
lightly
presse
stoked
vejjajiva
vikings
von
vow
whipped
##gate
alexandria
bustling
colors
comrades
contending
disarray
exception
resisted
shipbuilding
sided
stalinist
tasks
ulster
vodafone
wembley
claudio
espn
heaviest
jeb
jospin
kidnap
lacks
pizza
shin
sing
staggering
transatlantic
webb
##com
dormitory
finalist
naira
noisy
preventive
provoking
releases
scheffer
walks
##istic
abdelaziz
bastion
embarrassed
emperor
furor
ifor
nikolay
proposition
sharm
silk
surgeons
touches
##illa
##lan
abusive
emphasized
exposing
memoir
memorabilia
avenge
batteries
clemency
consent
dancer
escort
gilbert
intellectuals
mercy
raiser
schemes
triangular
twa
worship
##tal
##wn
blizzard
infighting
liner
mouse
mulling
nigerians
ponting
rash
siew
span
trimmed
##bed
##ens
##ett
##ld
##ux
baja
collaborating
condoms
creek
des
directing
golfers
proceeds
recess
tips
tuna
uncle
valentino
##car
##fe
##jo
detailing
firefight
gripping
halloween
lucas
overlooking
plateau
titled
##elli
##ovic
curbs
dutchman
exciting
fullback
thatcher
daylight
hydroelectric
photograph
raping
##ane
##ru
biased
bullpen
fogh
hiroshima
ina
intervened
loomed
memorable
nephew
transfers
villarreal
##ered
##ord
##tors
beatles
bells
curtis
deplored
floated
henrique
item
peshawar
retaliate
wealthiest
##ris
asbestos
conventions
dignitaries
indicates
ipo
koreas
maid
meningitis
palmer
philanthropist
riviera
woodward
##ese
brady
convenience
crazy
displaying
locate
nasty
sedan
stabilization
truckers
##ica
blackhawks
cleaner
dancers
earl
martyrs
penny
pure
reservation
rested
sandy
slot
stretching
telkom
triumphant
vince
##bury
belong
chu
cristina
cyclists
deck
fasting
footballer
integrate
liberalization
presents
rams
somber
vigorously
buzz
derivatives
drives
fargo
flare
olive
parmalat
screaming
urgency
wagner
##ire
conrad
heath
nestle
renaissance
slaughtered
starvation
storied
titans
touchdowns
##ster
col
consult
happens
hbo
jiechi
liang
turkmen
vigil
##ians
##woman
consuming
fearful
foreclosure
jumper
routinely
statehood
tempered
viable
averted
bulent
defects
expose
founders
polanski
prestige
snowstorm
sooner
##shire
##yo
blacklist
carnage
cheese
complain
effectiveness
endorsing
feasibility
healing
loyalty
nun
otto
tells
thrust
tunnels
anita
expressway
henrik
sad
stung
acquittal
augusta
cardoso
comparing
dismay
falsely
julius
luanda
nestor
patricia
perceived
secessionist
archrival
lifestyle
minsk
physically
prohibited
sese
belarussian
bolt
henman
kigali
legalize
positively
revoke
singers
spilling
certified
classrooms
dax
edmund
endangering
expire
injunction
leaks
pays
sef
seko
snatch
soar
altered
consolidating
delighted
deterioration
enforced
excluding
flamengo
gorge
irrigation
luke
mi
mistaken
obscure
okinawa
owes
plummeting
principe
viral
brooks
cyberspace
deliberate
drone
fingers
homers
ingushetia
malawian
obstruction
pause
sellers
unsafe
bruising
collector
displays
hashimoto
objective
salvadoran
shaped
slopes
stumps
sword
undergone
assessing
bathroom
dependent
limbo
sachin
shaun
tendulkar
tenor
timely
##hai
agrees
bass
bulletin
garrison
regretted
signalled
slice
yves
ba
gutted
lebed
marches
mt
overpowered
rapper
ching
cocoa
function
lured
musab
probable
scoreboard
sticks
useful
##cted
airing
element
installing
predators
ruptured
separating
shakespeare
##dale
##rie
apparel
bug
citroen
defining
mason
oxygen
precautions
robberies
shouted
unstable
worlds
conspired
flush
halliburton
inspire
maher
actual
baptist
ciller
depart
designs
ellis
guitar
guys
handgun
jammed
kate
khaled
rap
terrain
endanger
livni
midtown
ping
procter
protectionism
reflects
revelers
spawned
stray
undertake
venerable
francesco
gruesome
lesbians
paramount
pressuring
recipe
soeharto
tag
vandals
chao
concorde
defrauding
dirk
erased
hopkins
invented
lull
moya
nathan
offseason
piano
pullback
startling
##off
abide
accountability
birdied
borrow
flaws
judging
kasparov
marriott
probes
unilaterally
bennett
blazes
calf
cracks
crusade
eli
fulfilling
monastery
ozone
shenyang
supermarkets
troubling
vera
##book
##iness
##rc
##tle
adriatic
battalion
captives
clerides
cloned
ecuadorean
equestrian
ibn
ink
maverick
ordinaries
ortega
philharmonic
traian
congestion
flyweight
hacked
hijack
hint
ion
joins
jokes
montgomerie
mussa
persuading
preserved
resounding
##ome
##rum
biting
chemistry
convoys
cuomo
deepest
equally
float
florence
genuine
hartford
hubble
intensity
nino
ryutaro
sells
supermodel
supervisors
tadic
upheaval
barricades
blagojevich
minneapolis
overhauling
practicing
productive
retaliatory
suriname
tables
tissue
walesa
##ei
celsius
dodge
faisal
firestone
jessica
kunming
outs
skate
waning
wheelchair
##ics
##lis
answered
discontent
discourage
explaining
footing
frigid
mallorca
theodore
deserved
ghost
glen
patents
rioters
titan
##tions
boots
dangerously
festive
fishery
kuerten
lacking
mauritanian
offences
pad
princeton
promptly
salem
summers
unwanted
zimbabweans
beside
grieving
joerg
portal
tansu
typically
tzipi
advisors
basescu
bogus
chat
contrast
drifting
guru
mobs
##wei
##yu
baath
byron
contend
feyenoord
lagging
mechanics
miliband
municipalities
pandas
plastics
sack
se
skilled
yuri
accommodate
aftershocks
agence
borneo
builders
excerpts
grabbing
guo
haze
ideal
kung
liga
newcomers
qwest
stun
veered
applauded
ecevit
mahinda
saad
showers
smithsonian
superintendent
yong
bidder
bidders
chairs
charm
circular
demirel
lg
litigation
seismologists
timberwolves
glafcos
gomez
robbing
samper
scramble
structures
wilkinson
albany
criteria
dense
mia
ocalan
pessimism
verify
##gi
clocked
crescent
examiner
flock
gallon
ideological
microsystems
tales
tier
widen
##ying
anytime
apiece
davydenko
graduation
ivanisevic
nude
orchestrated
petraeus
rockefeller
sheets
##mir
##ui
batons
covert
detain
idb
ingrid
instrument
misled
nalbandian
tarnished
##ci
##fi
alcoa
collectors
councils
genes
interesting
irresponsible
joan
kcna
malone
necessarily
overhead
resisting
sculpture
tasked
##vers
##yn
blackberry
captors
cartels
censure
curious
escorted
fruits
fundraiser
juice
prudential
raucous
reasonable
slap
stint
surely
unsuccessful
wasted
##dar
commissions
demise
desmond
nz
plowed
scrapping
unresolved
vijay
wildly
morakot
riley
satisfy
unseat
ceremonial
countless
earnest
hawk
ivo
jurisdiction
liberals
peterson
ultranationalist
victorious
viewing
##point
##use
amazing
careful
chargers
excited
gorbachev
greene
liechtenstein
luciano
maluku
praying
retirees
spaniards
thriving
adjust
anxiously
bernie
layer
leonardo
steered
suzuki
tornadoes
tsunamis
umbrella
##ees
appointing
circulated
jam
loves
stan
staples
##dle
archeologists
dash
frightened
fuelled
haotian
heineken
karabakh
lax
magnus
rocketed
stunt
##ao
casablanca
decreasing
egg
installment
mentioned
muddy
ringing
slamming
splitting
suleyman
tseng
vendors
yulia
cage
carey
confession
globally
hillside
ingredients
luc
makeup
relocate
specifically
##ked
##wed
addicts
denial
freetown
heed
helms
khalid
mueller
perished
poisonous
qin
regulating
relying
skeleton
zhao
accountable
acknowledge
aig
bo
burton
covers
influenced
richards
yokohama
brewery
commentator
defect
embarrassment
essentially
exceptional
hampering
inclusion
instructions
kiss
slept
##une
berkeley
endless
fanfare
leisure
sorrow
supersonics
terrified
uphill
vuitton
darling
entity
indeed
needing
outback
regaining
roadblocks
slugger
spinning
televisions
allocate
alternatives
aspirations
brazilians
brent
commonly
congressmen
coral
eastman
eradication
isolate
nielsen
xavier
eldest
grande
hardcourt
infantry
pessimistic
striving
surpassing
tirana
undercut
##rk
accurate
billboard
brave
brushing
chunk
coffin
dini
iberia
lire
majors
missionaries
renounce
rove
##ras
##ski
attractions
chilling
europa
fabio
franjo
hardenne
header
literally
medieval
motorcycles
panicked
ravalomanana
receipts
seahawks
telegraph
transforming
wise
##ced
##my
admissions
dampen
greeks
jpmorgan
latino
populations
subjected
woody
correspondents
erected
exchanging
forgery
inappropriate
jacksonville
julie
midwestern
nintendo
sanders
scourge
statues
textiles
wanderers
##ator
##jan
adventurer
climber
dining
follows
minimize
packaging
rbi
savage
##cs
bite
buddha
coffers
commemoration
considerably
mombasa
rewarded
telephones
waterfront
##ray
##vis
cancellations
depends
deteriorated
loyalist
meles
novartis
paribas
petrobras
poetry
privatize
scaling
sears
switching
coin
destroyer
encountered
fisherman
homecoming
incentive
massacred
mosquito
resumes
stearns
swore
tudjman
willy
##fully
ate
californians
criticize
djindjic
elegant
emotions
grandfather
gunfight
habit
mode
pap
petr
ratio
squeezed
urumqi
vinci
wished
allay
elias
gunpoint
hoax
pm
recounts
shannon
streamed
surgical
themes
vioxx
##ab
denktash
diva
eastward
electing
giovanni
harassed
inhabitants
lamberto
outing
pains
picasso
poster
prohibit
riddled
skull
spun
teamsters
##bc
##sar
app
bouteflika
cashed
churchill
colored
countryman
disabilities
escaping
frustrating
havens
jericho
juarez
notched
residency
shifts
soured
swede
tapping
togolese
trafficker
unlawful
accra
assisting
brakes
campuses
connect
cutbacks
filmmakers
joaquin
kilos
lumber
outposts
playmaker
pour
scenario
stockpile
titanic
##ag
##rio
amounting
assignment
feast
gregory
kidnappings
mirage
preacher
rudolf
bride
canucks
centered
chuan
computing
corresponding
corsica
counters
floors
grizzlies
jackpot
leo
leukemia
malls
oversaw
planners
pyramid
ss
##ros
assuring
blasting
jana
katie
mostar
sidney
alliances
billing
cali
conditional
confused
cpi
frontline
grisly
izetbegovic
pin
reunite
ronaldinho
soong
tibetans
vows
##era
##rate
##tis
authorization
builder
dent
fertility
glaxosmithkline
landmines
mound
niyazov
oilfield
sped
subcommittee
undersecretary
vigilant
##ching
##ress
##vo
##we
anyway
invade
les
paused
pepper
ruin
sanctioned
shallow
vanuatu
##ex
##zer
benitez
bhutan
blackmail
coasts
coliseum
dignity
discs
exact
gil
guiding
holyfield
michele
phrase
psychiatrist
stalling
stumbling
zenawi
calcutta
divert
explicit
functions
hamburger
hawaiian
honest
impressed
muted
olivier
pepsico
preservation
rewards
spiral
statesman
syed
wa
batsmen
bleeding
bogey
conferred
eugene
evacuating
exams
fathers
flagged
heralded
jiri
licensed
mauritius
munitions
mustafa
recordings
refuted
terminals
toe
auctions
dupont
dynamo
ferocious
foil
gems
goalless
hearst
herbert
hicks
outweighed
playstation
realistic
shrugging
stored
##rian
##ser
antigua
creditor
eelam
pitting
productions
rodney
selecting
surprises
toilet
##work
aggravated
alija
bumper
columbine
dana
educated
feat
firefighter
kingpin
meaningful
rebuked
rios
sparks
tail
##und
amanda
distinguished
emission
everyday
greet
grumman
herman
hugh
lent
ltte
noble
raffarin
solely
teddy
toulouse
##hy
##side
cardiff
counseling
crocodile
execute
finest
fretted
glitch
gutierrez
hamper
indices
mariano
northrop
owens
please
printed
societies
##ain
blows
definitive
distress
edison
horta
insistence
mirror
misuse
poppy
reacting
ria
sicilian
spectrum
taoyuan
wam
##ado
bickering
blackouts
carroll
compelling
devaluation
hermann
hussain
massed
nader
speculators
starved
waugh
##eh
ailment
banda
bang
evander
fedex
greetings
inquest
logo
peasants
provoke
resignations
shrouded
stubborn
systematic
warrior
##min
alinghi
boot
busan
candles
paceman
readied
supervisor
##hia
##qing
clint
conceding
disguised
foray
liters
perspective
richmond
soap
stall
##yang
centerpiece
combining
defective
deserves
fascist
intern
joao
labeling
litvinenko
oversees
reef
unsolicited
vacuum
##burn
adverse
animation
battering
cancun
charismatic
crawford
foundations
hawkish
impression
physicist
preview
ranariddh
reader
sirens
thaw
tian
violently
wrongful
##ations
abul
browns
doomsday
dwight
fielding
mercenaries
miserable
repatriate
salam
softball
throws
vintage
##sis
borrowers
diyala
eroded
eyeing
hispanics
inability
poorer
rulings
slogan
stalking
teaming
younis
##board
borrowed
brandon
capitalize
definitely
exclude
guinness
highlands
jens
nicosia
seafood
sealing
subpoena
thani
updated
##ses
##ular
bessonette
dementieva
discounts
enrique
firebrand
genoa
graphics
joey
logistical
mccarthy
passionate
retrieved
seismological
washing
whirlwind
##aries
##mit
ashley
cry
grappling
grupo
marty
monkeys
organising
poaching
resettlement
reunify
swirling
swissair
tendon
underdog
yanukovych
##hood
deaf
habits
hayden
knives
lorenzo
ruben
specially
unlimited
wolves
zaragoza
##fold
awaits
beheading
coached
contraction
eclipse
kyle
leasing
lodge
postponing
sergey
shoulders
telefonica
boycotting
bubble
chanted
doubtful
enthusiastic
federally
fitting
graphic
gunners
heaven
klinsmann
nineteen
pitt
platinum
portfolios
pronounced
refueling
sosa
storming
unsettled
wrestler
##ments
absentia
adultery
composed
danced
glacier
hospitalised
jubilant
mulled
orphans
texans
tolerate
##ora
aborted
allianz
beds
chaired
detection
emergence
eurotunnel
gambia
kuznetsova
nail
nationality
repaired
ruihuan
shan
##bing
assassin
auditor
benefiting
betancourt
bihar
cornerstone
forex
fractious
greenwich
naples
nighttime
statute
summary
##horn
##ile
brace
coli
commentary
convicts
spewing
##ack
##bar
##ore
##ws
amusement
aspiring
cac
choking
contagious
davies
disability
dot
mgm
novosti
overturning
ravens
reinforcing
salvation
allegiance
angelina
anton
buddy
cocktail
console
mahdi
paradise
persuaded
superjumbo
withheld
zheng
##sion
##ware
conciliatory
condolence
danube
exemption
methane
parish
pristina
trapping
tyler
##inger
##ona
altogether
climax
ctk
deer
hideouts
oas
rutgers
sidewalk
watches
westerners
workout
yar
arantxa
breaststroke
cultivation
hopman
jonny
malik
paramilitaries
sequel
tongue
##ren
advising
busted
erratic
manipulation
nichols
portable
sizable
spends
staffers
thrashing
torres
valid
ase
bunch
concludes
cowboy
dashing
disbanded
fdi
periods
provocation
srinagar
whitney
wondered
##if
communal
gennady
gypsies
hiking
inked
lens
promotional
relaunch
tributes
undecided
bombardier
iss
jungles
libraries
maneuver
piraeus
resting
roaring
stephane
tymoshenko
##ala
##gh
##ung
ambition
applause
crane
ernest
gritty
marwan
najib
nutrition
parcells
peacekeeper
possibilities
relegated
reshuffled
scout
shining
spiked
starred
umpire
underlining
warns
##tein
beers
blanc
loeb
notable
notch
scolari
whenever
##pp
appliances
dams
disciplined
exploding
headway
inquiries
lashing
ole
pointer
pond
rounder
stoking
##away
##cking
##feld
##uk
assailed
backyard
bahadur
bats
beit
beneficial
biblical
boundaries
catering
classmates
davos
defusing
enrich
expenditure
inconclusive
lowly
mar
prefer
reap
twickenham
vi
bancorp
blank
breathe
burying
consultants
corners
eminent
erase
hart
jankovic
neglected
pared
profession
propel
razed
santana
successes
alexandre
armor
arraigned
blazing
concealed
eva
gale
massimo
mobilize
npa
onetime
royalties
salmonella
steadied
subsequent
videotaped
wachovia
##oping
bakili
fixture
geophysics
kidd
lonely
messi
recovers
sake
soften
spouses
transported
trusted
xiang
##ification
abbott
arusha
banquet
barge
enraged
explode
icahn
improbable
muluzi
revitalize
rovers
sikh
thunder
triathlon
adrift
aliens
assuming
bellsouth
berger
churned
fatality
foreclosures
fumes
kostelic
larsson
mig
nonstop
offsetting
quran
supervise
tombs
##ito
airlift
brass
crept
evacuations
fitch
grows
hiatus
lahoud
lars
marcel
outburst
preserving
ruiz
scared
staple
undated
##cker
##ration
##tel
buck
clive
consular
delphi
exclusion
explained
fivb
layoff
replay
roofs
shorter
tend
tucked
worthy
alberta
assurance
audi
densely
landmarks
obstructing
occasional
paralysed
pavilion
pornographic
practiced
sadness
shrimp
thumb
upturn
waved
wim
##air
adjustment
assertion
beliefs
diminished
ears
identities
irina
jolie
lott
manpower
mobilized
ram
repurchase
rescheduled
roadblock
traditions
travis
underage
unruly
##oni
ai
blockaded
cake
certification
clouded
dazzling
directions
elton
excuse
lecture
leonean
liable
mailed
penultimate
pillar
punched
scooter
segment
shunned
slate
swelling
torre
unpredictable
##ale
##ologist
bertelsmann
certificate
conferences
confinement
darryl
dominik
gatherings
gheit
mastercard
ortiz
patty
quarantined
sweltering
troupe
trustees
##ien
appliance
bologna
bombarded
carved
coaster
historically
indictments
picturesque
premises
razak
rushdie
salomon
sorry
sour
spielberg
superb
surf
tee
ventura
##load
##ory
beset
coleman
comptroller
congratulatory
coupled
erosion
harrington
invading
magnetic
outage
pale
purge
samaranch
winnie
##hr
##sco
advise
bakiyev
breezed
chairmanship
chittagong
contingency
directive
disneyland
episodes
flyhalf
hints
impassioned
lamented
landfall
legends
murderous
optical
rainbow
romanians
scholarship
sheltering
tallahassee
tearful
toughen
windy
##orn
adidas
asthma
councillor
harbin
jaime
kursk
mrs
myspace
nagorno
punching
reluctance
rescuing
shuttered
supremacist
tactic
andrews
budgetary
celebrates
forecasting
freeman
mcdonnell
nacional
oleg
polluting
rupee
starving
swamped
thief
architects
cadbury
cigar
horns
hydropower
kwacha
merit
mortality
persson
reconcile
staten
strangled
troopers
unconscious
##ix
##rated
adua
automatically
chill
consumed
entourage
forbidden
greeting
interbank
jaya
kozyrev
leapt
lets
ochoa
outages
practically
saeb
smog
snooker
tug
answering
baton
cameraman
hooligans
kurmanbek
mom
objected
rifkind
roses
slaves
totalling
touting
vista
##eta
##iling
carson
daly
exclusively
fated
fencing
finalizing
flanker
jeans
jeddah
muralitharan
neglect
olds
pants
parkinson
rodrigo
tyco
whip
windfall
wonderful
##aw
askar
cab
coincide
commended
corey
describes
domain
drenched
hastily
humble
inflows
inform
insults
jurgen
safeguards
shakeup
treaties
veil
wines
withhold
xerox
##boat
##mc
##sha
boc
constituencies
contacted
cultures
famously
flies
fossett
hinting
hossein
kills
laced
lilly
portions
proxy
quantities
shoaib
umpires
waterway
##bu
##ened
##ice
basf
branding
conversion
disclosing
fences
guaranteeing
heats
ingredient
intentionally
knees
metre
muttiah
nottingham
quantity
remarkably
sara
suitcase
##row
concussion
consul
decried
drain
educators
filmed
genius
haile
iyad
luge
mullah
nortel
offs
prevailing
produces
smell
soy
swelled
warheads
zulu
buoyant
fatigue
hajj
historians
insecurity
masses
medications
moderates
stoke
vibrant
##cks
##gal
##nik
##od
##room
anybody
armando
booth
bowled
braved
cannons
chinext
chipmaker
edouard
feng
gerrard
melamine
pal
pesticide
psa
regatta
remanded
sands
slovakian
spoiled
succeeding
void
##cies
##ncy
##ulate
bailed
bouncing
burger
cna
computerized
crammed
echoed
hamlet
hook
kindergarten
policing
precaution
saparmurat
smash
synagogues
withholding
##rating
bachelet
chevrolet
flattened
however
hutchison
inflated
jamal
lennon
liangyu
looms
pelted
pipes
rewrite
salvaged
shame
yan
##ys
brutally
bureaucracy
emmanuel
fenway
jinping
measles
petty
precision
soekarnoputri
tops
afl
alerted
dragons
evacuees
nagano
raytheon
revising
scouts
slope
sweat
umaru
utmost
viagra
wizard
##court
attaches
bangalore
brake
camilla
concede
henderson
hubert
infecting
informant
instructor
mich
monuments
murky
razor
rightist
scuffled
seventy
villaraigosa
woke
constructed
dispel
epo
frenzied
gnassingbe
ignite
jo
merged
mikheil
olga
palmeiras
privileges
retreating
rows
temples
veiled
venezuelans
vicario
##via
angop
assemble
chih
courier
cruelty
demilitarized
ernst
euthanasia
goma
hank
hau
hoya
infiltrated
jailing
mai
naturalization
pastrana
philosophy
prolong
protein
purple
requesting
royalty
sgt
sitcom
user
advantages
autocratic
aventis
bavaria
betty
debacle
fortis
identical
iphone
jetliners
militancy
pitches
prostitute
protester
shwe
snubbed
waziristan
##bling
bucs
chin
fleming
lorry
ominous
precedent
rbis
sway
tenet
twisted
undertaken
uttar
akayev
clerical
ecuadoran
foley
hardliners
hilltop
hydrogen
kurd
nistelrooy
overlooked
pets
philippoussis
rat
react
recipient
rivera
saturn
sounding
tijuana
treasuries
zayed
##pt
adequately
bae
buick
commemorative
complicity
edwin
happening
harming
hurling
idle
leaflets
overdose
papadopoulos
paterson
pinch
plaintiffs
salute
spectacle
spinal
substantive
treacherous
upside
##eed
accompanying
bjorn
claus
conservationists
cricketer
cska
deliberating
deregulation
disturbed
haifa
importers
involves
ku
magistrates
merging
nova
painkiller
patterns
pine
qiao
renminbi
rss
searing
snag
timed
watergate
bakar
cao
expelling
jaguar
jake
maier
nuns
orderly
overheating
positioned
rusedski
sustaining
##ock
##rant
booster
bridgestone
ciudad
deprived
glamorous
grateful
indebted
kathleen
onboard
patten
pepsi
rangoon
rubles
syracuse
##fy
##lic
adjacent
arranging
believing
clerk
discoveries
exploiting
licence
montoya
morrison
oriental
privilege
repeating
rightwing
sanction
tamils
xiaobo
##mba
##tin
##yev
artery
ballpark
blanketed
bongo
choked
commemorated
diaz
epa
fracture
hwan
irregular
juror
lauren
pub
racket
riches
tutu
underworld
zoellick
##logist
cas
emotion
fahrenheit
kyodo
lopsided
markedly
mottaki
ngos
rattling
script
unfolding
valery
warmer
wishing
##ada
##link
despair
federations
ferrer
fluctuated
gonzalo
gramm
hazards
kazakstan
keeper
marshal
menu
motorcade
oao
outlet
phuket
religions
remembrance
sanaa
screened
sol
somehow
##kovic
##nan
##pers
anymore
bengals
blix
lamar
padilla
receives
roadmap
sco
sorts
stranding
supervised
##ings
##ula
##ved
andhra
antibiotics
boulevard
cis
cop
donating
enabled
friction
kemp
laps
lynn
narcotic
oaxaca
perfectly
piazza
referring
ronnie
salinas
servant
somalis
soothe
unexploded
vaughan
##lied
bunker
cans
civilization
cleansing
exists
fist
fletcher
glittering
harmed
huckabee
joachim
limelight
portraying
recycling
secretaries
spokesmen
stealth
supplement
##rous
applicants
ballack
cepd
eden
foreigner
luca
mittal
unilever
abramoff
baylor
bernama
comfortably
confederate
dish
exert
interrogated
presley
prohibiting
rides
smallpox
terminally
##als
##har
alfonso
beans
chien
diane
entertaining
guerrero
homegrown
mccann
methamphetamine
oceans
porn
recreation
safina
scoured
shun
threshold
uninsured
vigilance
zhuhai
##hong
attendant
bujumbura
catalonia
cue
embracing
enlisted
eviction
gaz
gigantic
hsinchu
knesset
marble
markus
procedural
shek
softer
stopover
strategist
sumitomo
vastly
waco
waived
appointments
berths
dpr
forefront
lineman
prosecuting
refer
supersonic
clashing
combatting
contesting
daniels
forwards
giorgio
hasan
leaderboard
logan
npt
recorder
saeed
stoning
tassos
##lly
##some
auburn
cardiac
circulating
entertainer
eurostar
footballers
gloves
harriet
lira
nervously
pharmacy
skater
terrorized
theories
wheels
##ich
apec
booking
colonies
constituency
disagreed
diversify
edinburgh
eyewitnesses
ferenc
industrie
malnutrition
nabil
performer
shyi
synchronized
wong
##ena
##lands
backstroke
confrontations
courtesy
inaugurate
irian
jolt
naacp
nash
pedestrian
racer
rejects
shotgun
shower
sse
sunset
vanguard
##nu
absentee
afloat
aslan
barricaded
belongs
cbc
cds
custom
dear
deval
distressed
hid
hiked
meyer
milton
mormon
motorist
proceeding
restarting
savimbi
starters
talents
withdrawals
##mate
##stein
barreled
charette
countering
expands
expatriates
gaps
grenada
infiltration
loosen
moss
ok
ordinance
plates
primera
rubens
shalom
slums
subways
unharmed
urine
aluminium
amidst
continuation
disorders
durham
ge
maple
montenegrin
reshape
soyuz
spider
styled
subpoenaed
tonne
ventured
##ators
##az
##ira
##pur
bildt
chalked
chiapas
comcast
divorced
manouchehr
mega
personalities
rafter
rocking
shelved
sizzling
swarmed
thais
tribunals
##can
absorbed
aek
contador
dario
discredit
employ
gym
hacking
inundated
karel
oak
prelude
softening
spelling
strides
##mp
##rich
##ston
aliyev
barney
benigno
chapel
cherished
cla
cnooc
dai
fetched
fia
glasses
greenland
heightening
ju
mazda
menace
moses
outdated
parades
parliaments
pleasure
repairing
ripping
safeguarding
scorching
skyscraper
suspense
viruses
##ette
##our
##vy
asks
branson
constituent
jams
jordanians
liberalize
loser
michelin
odyssey
orchestrating
porter
rumbled
sponsoring
swinging
thinner
##aya
##lar
accessible
alice
binyamin
championed
cod
conscience
dinara
disk
guinean
heist
karamanlis
mvp
payrolls
promoters
responses
rethink
achilles
affects
baku
casual
clement
codes
hinder
idf
imaging
incurred
jade
mandelson
methodist
mofaz
nikolai
nowitzki
paedophile
plaguing
sanofi
saud
sperm
transplants
tremendous
wolfsburg
yorker
##een
##je
##stic
##try
##yuan
abb
adhere
advertisers
argentinian
bellwether
centres
classics
complicate
criticising
devote
festivals
frances
medina
newman
origins
platforms
prasad
pummeled
reins
rhodes
seismic
sham
someday
##enko
alfredo
blocs
cane
clinging
draped
enrollment
evade
hanson
petroleos
sends
slowest
snowy
stabilized
sufferers
supposedly
tariq
toni
unionists
##gging
##ovich
abolished
ak
anheuser
donna
frederic
ilo
incredible
johns
kaka
klein
liked
lyonnais
mosley
piling
planner
preval
ramp
soybeans
vieques
vonn
wetlands
##fish
##iers
##nell
##uer
adriano
alcoholic
conchita
creatures
eni
favoring
imposition
kse
loses
lowe
masterpiece
mentor
objectives
parity
roiled
satisfactory
sodomy
standby
weakest
##ify
##ita
abdallah
beth
chairmen
commissioners
corrections
cosmonauts
counterfeiting
hugely
maj
mathieu
mcgwire
mls
normalize
raikkonen
savvy
shea
steinmeier
telstra
wendy
##ken
baseless
bros
conclusions
corpse
flesh
jacket
potato
quash
quashed
seminary
smear
stellar
##enberg
##pi
accomplice
aidid
announcements
balloons
barings
carmakers
defiantly
dried
enjoys
foremost
grams
harassing
herd
humiliation
inherited
mudslide
negligent
paddy
repayment
swedes
unscheduled
unsealed
##net
anchored
assailant
atoll
bantamweight
brendan
carnegie
characterized
discharge
interpreter
minivan
openness
perception
positioning
racked
retrieve
searchers
spearhead
##wick
accustomed
axel
boasted
chiayi
dissolution
drums
electorate
elliott
exchequer
gibbs
graffiti
injecting
karimov
leaf
lloyds
prediction
proton
shaul
skyrocketing
suicides
summits
tat
vouchers
##fied
##nk
##sp
##ua
academia
acropolis
advancement
cindy
ensured
fried
functioning
georgetown
melting
mick
reflection
restraining
sochi
##des
alleges
ashton
belts
depths
derrick
dilemma
distributors
educate
grasp
gusmao
haq
ivorian
kickoff
mask
metrostars
molested
notoriously
paraded
strawberry
swooped
translator
transnational
unnamed
wool
allrounder
auxerre
centimeters
congratulate
monkey
motel
nadia
natalie
overloaded
paved
reprimanded
shepherd
sv
swan
tremors
weaponry
##box
##ium
##rm
##time
assassinations
attitudes
centenary
cereal
clause
downfall
foothold
intermediate
intersection
keegan
kimi
louisville
malaysians
occasionally
omani
rioted
romario
shadows
stalin
suite
ul
wiping
##gas
##sel
alpha
combative
democratically
farther
fi
genome
herbal
luigi
nasrallah
necessity
newport
ngo
richie
springboks
##cc
##front
##ington
##ivity
airfield
bazaar
consciousness
depending
elevator
entrenched
gentle
headaches
horst
miroslav
nigel
quito
shooter
sotomayor
submerged
thereafter
yachting
##city
accounted
asashoryu
basically
beslan
blames
boulder
bystanders
cafes
corning
crewmen
crying
daytime
dissatisfaction
echo
hobart
kerkorian
lang
lava
lemieux
portraits
purportedly
relocation
scan
shaukat
tangled
thessaloniki
thoroughbred
alternate
christophe
congregation
crater
dc
eco
forceful
hampton
klitschko
maintains
mistrial
narrowing
nascent
pbs
persisted
rifts
santo
sever
sharpest
stretches
tb
warplane
westchester
##end
##ght
##light
balancing
domenech
genre
icbc
lotus
malibu
mandated
ottoman
phillip
portray
rebuilt
skirmish
steinbrenner
unwilling
##esh
##mas
##uous
##zation
absorb
adm
anastasia
assert
breed
democracies
exhibitions
fortress
frigate
ganguly
harrowing
leslie
mnd
nickname
rainer
rented
sleepy
soliciting
trainers
ushered
vn
##pin
##rad
bribing
capita
controller
focuses
gangster
gillard
hazard
ineffective
mas
nears
nod
rachel
reinsurance
repressive
rosa
sparkling
speaks
unep
vnd
##ifying
##lation
cheated
daylong
entities
generators
hualien
ignacio
indycar
ljubicic
mistreatment
nantes
pesticides
raceway
relation
suitable
unleash
vick
vulnerability
walsh
##ans
##nick
anand
aquatic
archer
bath
caring
conspirator
daschle
dinars
dylan
fulfilled
hype
impetus
interrogations
levi
marin
maskhadov
mauled
monsanto
newton
patriotism
precautionary
precise
ramadi
redeployment
rehearsal
rmb
warmly
wie
##els
##ison
##xia
administrations
conjoined
denies
fluctuation
gaulle
gogh
immunization
inspecting
irwin
kasyanov
makeover
marrow
predecessors
protestants
respite
revelation
spanning
stade
vasco
walid
##ias
##ils
##nts
comet
communion
comprising
debuted
discord
emphasizing
farooq
flour
glove
goodyear
gretzky
indict
luo
monterrey
naomi
refined
riverside
shen
shrines
straining
stripes
suleiman
takers
unease
upwards
wildcat
wyoming
##mal
##rade
arthritis
convening
damien
discounted
diversified
doubted
famer
fitzgerald
gravely
indecent
relinquish
reproductive
rite
rousing
subsidized
upsets
vernon
visual
##bbing
##bic
##iel
##rst
accountant
akhtar
amadou
analyze
bearish
breaches
colombians
crete
criticisms
dispersed
dreamed
eac
epicenter
gospel
judged
kaunda
liquidation
mates
optic
outrageous
paralympics
paralyzing
peddling
processor
raiding
robson
shaw
tablets
##cht
##lie
blankets
contestants
descendants
exhumed
harboring
icons
klux
marsh
mehdi
nabbed
nagoya
nassau
overran
preakness
prematurely
reassuring
reclaimed
regimes
severance
stranger
yomiuri
yusuf
##mon
##ssa
bookstore
bradford
comex
deferred
evicted
flipped
hauled
importation
lai
mcclellan
minus
outsiders
paz
portrayal
presbyterian
proclaiming
profiling
proves
reiterating
reprisals
seals
soprano
spice
stays
tikrit
tsai
##cked
##fer
##fu
advocating
antoine
arcelor
basel
choi
clarence
curt
daniela
deflation
discriminatory
downbeat
endowment
favre
grains
incidence
lamy
laptop
lifelong
listened
lobbied
lockout
psychologist
sla
surveyed
triangle
trojans
turtles
understood
upholding
vocational
##ade
##oko
cries
deepwater
deserve
fe
ferreira
fluminense
griffin
haunted
intimate
judith
kwan
laugh
lohan
massa
prairie
remark
rumor
surfing
torpedo
##goers
abducting
adaptation
adulyadej
affluent
availability
awami
beacon
bhumibol
cio
cruising
erbakan
executing
frightening
gangsters
gareth
inflow
knowingly
lp
medalists
polygamist
readings
retake
routing
sociedad
tripartite
vitamin
yourself
##lier
ample
beneficiaries
dividends
eroding
fairy
hector
hikers
incursions
lukas
motogp
ntv
pedophile
promotions
rainstorms
seychelles
sophomore
succumbed
tina
trunk
ullrich
unravel
wept
##ction
##dis
##lit
accumulated
assistants
berisha
brains
collegiate
complicating
dormant
emotionally
endurance
entries
expatriate
gaston
ivanovic
jewel
legion
lng
macy
mattel
mayer
patterson
rats
schneider
smiles
stifle
unfit
unsolved
vargas
westwood
wholly
##ative
##bin
##chen
##tch
cec
commerzbank
delight
emblem
exaggerated
fairness
farah
forgive
fusion
honeymoon
immense
mamadou
multiyear
mysteries
picket
poker
prevailed
prominence
rusty
sundance
surrendering
##aki
##ven
abdoulaye
annulled
chechens
conscious
disappear
extort
funerals
glamour
glance
guadalajara
inducted
kilometre
kmart
moribund
nearest
preparedness
providence
qomolangma
relied
ruthless
sali
salzburg
scholarships
shocks
squabbling
terminated
thoroughly
upsetting
werner
##su
allocation
belongings
clip
corzine
denominated
dispatching
distinctive
erasing
fuad
gianfranco
imagined
kan
lm
mesa
moe
orientation
pf
recorders
roar
sapa
somebody
stagnant
stamford
tna
wonders
bono
clogged
fabled
improvised
infested
irving
lille
outplayed
pasadena
photography
radically
rajapakse
ravaging
reservists
seizures
sher
spiralling
tucson
urges
wasting
##lah
##onic
adapt
ancestors
basilica
beta
blogger
cups
dimmed
fancy
frontrunner
grilled
gunning
hacker
hindering
johnnie
lengths
multiparty
necmettin
normalization
nuremberg
oh
powerhouses
tashkent
underwear
vacated
##nation
advocated
butt
cantona
cementing
clearer
consulted
courtney
dishes
espanyol
flung
forcefully
headache
hotline
malpractice
motorway
observing
penghu
photographers
preaching
rehabilitate
restitution
rhythm
schedules
spurring
trauma
unsure
vientiane
##nis
avalanches
contemplating
description
filings
generator
hathaway
hebrew
ideology
intelligent
lcb
miers
olympiad
osman
pak
ramsey
refiner
swings
undertaking
vaughn
virulent
##das
##kes
##lam
##ood
ahtisaari
alien
assessed
belize
biography
devised
duc
eavesdropping
fundamentals
giuseppe
handicap
involuntary
postelection
qorei
rained
reyes
rwandans
schoolgirls
spied
startup
supremo
surpass
tossing
uneven
withstand
##gle
##nia
##oon
##yed
alicia
amassed
con
diary
echoing
hijacker
hospice
infielder
jeopardizing
katsav
lacrosse
midfield
rahul
ranil
raza
sk
soros
trophies
witch
##down
##ida
axe
burglary
etienne
exploratory
gam
gao
guam
hannover
initiate
injections
isna
jermaine
krajina
mediated
mehmet
messier
midweek
mordechai
ould
pushes
renamed
schiavo
sedition
shelf
sigh
specializing
sums
tiebreaking
##bility
##bound
##nda
albums
beverages
burke
garments
lorena
ponzi
revamping
sampdoria
squibb
unleashing
verdicts
aftershock
airlifted
antique
brooke
chivas
convertible
decent
dreaded
eighty
grassroots
hardship
hobbled
hua
instantly
insult
lapses
philosopher
pointers
qi
qurei
remind
shaft
smuggler
visibility
##ifies
##mont
accomplices
closes
crafted
helmet
hurry
invoked
ling
martti
moguls
nicklaus
ought
petitions
recreational
subindex
suppression
tampering
updf
vandalism
youthful
##cious
##dt
##tted
airbase
annexed
appreciate
archery
architectural
awkward
bernardo
bobsled
destiny
disengagement
drogba
equip
examinations
fis
footwear
freak
fruitful
fuelling
guido
guilt
husbands
lawlessness
magnificent
manipulating
phony
segolene
selig
stride
unfinished
writings
##ari
##fo
asem
astonishing
bremer
crosby
defrauded
dixon
drawings
enlarged
eto
euphoria
hmong
iliescu
insight
kia
lucia
maharashtra
marshals
messaging
obscene
pits
reveals
sakhalin
supplements
verification
wrenching
##pping
anticipating
believers
bernhard
bio
clooney
conserve
contradicting
diallo
emil
fringe
gypsy
hovering
infusion
jaroslaw
landis
larijani
medellin
mei
processed
projection
protectionist
quan
retailing
traveler
triumphed
unify
xanana
##course
##ere
##lings
##sley
arthroscopic
betis
disarmed
halved
jacobs
lausanne
murderers
nagging
nbs
paced
ringleader
sbc
spewed
stabilise
unaware
vacations
yousuf
##los
##mbo
##og
diarrhea
download
eds
eligibility
hsu
idriss
letterman
manages
minimal
outlasted
reorganize
rodman
tae
terri
usain
##zy
backward
beard
converting
dubious
ecomog
erekat
frankie
housed
insee
kang
lighter
pulp
rigorous
saigon
saudis
siblings
skipped
subpoenas
tareq
vacancy
##jun
##tered
alexandra
biologists
browser
bullying
clocking
constantly
disband
employing
fraction
hooker
internally
obligation
outsider
pitted
recipes
seated
spraying
strategists
tusk
venables
##eng
##ffe
##mark
##una
alamos
bratislava
categorically
cdc
existed
finishes
geopolitical
marilyn
masse
moratinos
notebook
offender
pier
scuffle
stimulant
strewn
temper
tendered
understands
zanu
##ach
##bert
##ju
##ku
andes
automated
cervical
environmentalist
expiry
gratitude
grounding
hardened
intriguing
mantle
piles
predicts
reilly
reluctantly
schuster
sourav
traced
unionist
##had
##rdi
##tated
##tc
##tie
##wi
accessories
bounty
boxers
butter
byrd
compromised
engulfing
frail
jupiter
kournikova
loving
lush
macro
mountainside
nationalize
overtake
reefs
shearer
terrell
thronged
unrelated
warehouses
wickremesinghe
yielding
##cast
##fs
##hen
barren
citibank
conditioning
consistently
detonate
emptive
er
forgiveness
griffey
impeach
langer
maori
mcgrath
mdc
mof
mutually
nest
newsweek
outpouring
restrictive
schwab
taha
whipping
##fire
##ika
##ipped
##rl
##unt
##urg
accepts
ancestral
apologize
breakthroughs
chairperson
deby
dental
fledged
footsteps
hoisted
likened
lyrics
pearson
purse
rabbis
restarted
reza
sr
thrilled
wallaby
##gang
##hel
##rol
##rrell
alistair
ayman
backlog
dynamite
extravaganza
firestorm
foreman
freddy
jeter
mesut
migratory
mixture
olympique
reaffirming
restrain
robber
silvan
suffers
synthetic
unfounded
bangladeshis
barrichello
bureaucratic
caterpillar
consultancy
contraband
defectors
dvds
emi
fiancee
guilders
janica
jimenez
johannes
leste
parched
pumps
risking
speeds
wolfensohn
##ois
angelo
barbaric
besides
bluntly
boyd
cho
contends
encounters
extract
hoon
isaac
jaber
jenny
lucio
melinda
rationing
softened
subtle
upstart
wreaked
##hs
##its
##ska
arrears
conte
cripple
crosstown
diversion
elysee
enriching
fragments
gillette
grabs
interrogators
luring
manifesto
meteorologists
nonproliferation
proportion
raked
repercussions
sans
schering
shara
sopranos
staked
statoil
tricks
ukrainians
unheralded
vans
wrest
##pper
anja
arguably
cayman
cone
cooled
coping
deterrent
emphatic
gestures
heisman
herat
liftoff
monumental
oaks
ovation
parachute
persist
ransacked
replica
scarce
shine
swirled
##lies
##rick
anp
arnaud
assange
beam
cbn
christina
coke
commuted
demjanjuk
depicted
discarded
distanced
educator
feminist
fiercest
fredrik
garner
getty
grades
hasty
intolerance
knot
meguid
midland
patacas
probed
retarded
saba
sin
spratly
strangling
suffolk
tabled
wrath
##gent
##lock
##nie
##shed
absurd
arsonists
ballooning
constitutionality
dad
disco
dull
excellence
hats
ivica
leekpai
lobbed
reunions
rowdy
sexy
spooked
theatrical
unlicensed
vehemently
##iya
##over
beatings
closures
cosmodrome
dolly
euronext
exploited
farrakhan
finley
flocking
gem
hideki
intraday
lanes
nna
opt
overly
paths
payton
perilous
petronas
pristine
regulated
sculptor
springsteen
translation
vaccinated
worded
##eck
##eni
##ige
##master
##pped
##rg
aborigines
aer
angering
arid
auspices
cooler
cried
evict
haired
illustrated
judaism
laotian
pep
pinned
playground
recurrence
recurring
registry
salesman
showcasing
signalling
stashed
stoned
sunnis
unb
abolition
beatle
compassion
diagnosis
endesa
esmat
exxonmobil
flatly
glut
hammering
helpful
lively
marquez
mistress
predawn
punk
scarves
sculptures
server
##bre
##pu
##val
##wing
abolishing
adventures
berkshire
bot
contents
convey
disadvantaged
dundee
fars
generali
handlers
hitachi
ipr
nicknamed
paradorn
permitting
robinho
scooped
shipwreck
staring
stating
tamiflu
textbooks
thermal
turk
unaccounted
vodka
yilmaz
abundant
ahmet
compounds
condemns
constructing
cremated
disgrace
dodger
fur
guides
gymnast
handguns
hectic
infiltrate
infineon
katherine
maneuvering
opting
prevail
recognizes
statistic
suarez
taxis
waterways
##die
ait
alma
antwerp
baikonur
bungled
colliding
competed
cord
defection
fayed
flip
horrors
inkatha
lanzhou
masterminded
motorbike
patron
proudly
quarterbacks
rabbani
rolf
semester
texaco
tsu
turtle
udinese
vague
##cher
##ins
##sman
amato
assembling
bacterial
biology
curator
dioxin
eccentric
eluded
emomali
enthusiasts
guus
heather
hiddink
implants
negroponte
pavarotti
perennial
rai
ripe
shirin
soo
wandering
##ability
##con
##ella
##ios
##like
asiad
blowout
cedric
cordial
deadlines
downpors
expiration
forsberg
frei
gossip
grachev
hatch
joyce
keating
malian
mediating
motorcycling
noel
pedestrians
petrova
prey
promotes
radek
renovate
rowling
runways
scant
sharpton
tepid
terrifying
weber
##chang
##ied
##ima
abel
acceleration
arenas
astra
axis
bamboo
brighter
combed
crisp
debilitating
flawless
grappled
insiders
inventor
leafs
lingus
realizing
sprinters
tangible
tong
undisputed
visions
vivid
weathered
##ama
##yard
asians
benson
borough
capitalism
confessions
curling
czechs
deceased
dipping
donnell
dusk
ebadi
encouragement
evident
fijian
foxborough
goeran
handheld
hao
heirs
kirsten
lukoil
orphanage
pacts
pele
remedy
scuttle
taped
uncomfortable
vain
vuelta
whopping
withstood
wreath
zairian
##hic
##ller
##tas
adversaries
ailments
classmate
commentators
councilman
courting
footsie
hastert
hauling
hertha
implanted
kay
koran
notices
reaped
relocated
rooftops
skipping
socialism
tasmania
torching
weekends
weizman
##aved
##ship
##xi
brigadier
colossal
dim
disappearing
emanuel
firemen
granite
hongkong
invalid
jew
jie
leszek
localities
mixing
priceless
protects
snake
sportswear
springbok
suppress
suzhou
technician
unrestricted
withering
##cal
##ew
acrimonious
autos
chemotherapy
commemorations
cornell
darwin
emily
franks
koirala
marek
marian
nur
particles
pools
prescribed
streaming
terminate
tricky
windsor
##bra
##hin
##ius
##keeping
##oy
afro
assassins
builds
cinemas
clara
coptic
distinction
ewing
feisty
gilles
graduated
healthier
inflammatory
laughing
leftists
newlands
offensives
peiyan
plucked
quentin
rabies
schilling
srichaphan
stifling
stupid
tapes
vendor
zvonareva
##art
##hn
##rier
##tra
##ug
##ullah
accuracy
airmen
aquarium
assertions
balcony
ballroom
biennial
buffeted
canoe
closet
cunningham
egyptair
foothills
galatasaray
glorious
grady
hanover
kingston
leghari
malaga
mathematics
mont
nyse
occupants
peanut
preference
pyng
relaxing
spanned
vale
##hon
##mes
##rine
alley
breathed
cafeteria
cba
cushion
disclosures
gavin
grievances
kadima
kingsmead
lame
musicals
norton
oasis
objection
occasions
petrochina
soderling
stripping
##bach
##sat
bonnie
christoph
darkened
decisively
emma
fitr
flores
garang
gazette
handset
koehler
overcrowding
papal
rajasthan
reais
referendums
scheduling
sightseeing
spearheaded
tackled
verhofstadt
zealanders
##dal
##gged
##oned
##strom
analyzing
axed
baluchistan
bloated
broadening
corridors
cramped
cranes
dugout
fraught
gilani
hee
honolulu
inaccurate
intimidate
jenson
jeopardized
ligaments
losers
lungs
lusa
magical
photographed
quo
rounding
samarra
skill
sled
squared
takeovers
wallets
warmed
##lco
##met
##oa
##tu
arats
bjp
bloodied
bricks
caf
carlton
collaborate
doo
fictional
grinding
hygiene
namely
radcliffe
rampaged
recapture
tucker
unbeatable
velayati
##win
##yun
albion
ante
barbed
beckett
carrefour
clarkson
concealing
coors
crimean
fluid
gaddafi
hale
inferno
jaguars
jian
johnston
leary
marcello
mutharika
pie
prodigy
prototype
ranger
rendered
sens
styles
swallowed
teetering
##low
##ury
blasphemy
boasts
burhanuddin
cambodians
delivers
erupt
fanning
hernan
krishna
mausoleum
memoirs
molotov
ningbo
overweight
palme
rebates
rts
sclerosis
scorched
scratch
skilling
surfers
swam
tactical
taitra
trap
tyre
wed
##oped
airforce
ala
blackstone
defector
denomination
erode
extinct
ezer
fabian
fowler
fuzhou
gabonese
granddaughter
hangs
lid
moreno
overrun
overtures
rabat
salvo
samantha
shoddy
steeplechase
tatiana
tcu
trendy
unloaded
watchdogs
##ique
##lers
##rno
##stan
##tto
authorised
barkley
belly
benign
catalan
creates
dokic
dynamics
embarking
fossils
franchises
fujitsu
haunt
hina
illegitimate
inroads
launchers
marvin
newfoundland
olympian
ribbon
scottsdale
supremacy
watchers
##life
accompany
armitage
balladur
beatrix
booths
bromwich
buccaneers
chandra
communicate
composition
contended
daley
deborah
formulate
freshly
geography
gp
heroine
nina
pollutants
richer
rookies
strayed
tumors
woolmer
zedong
audacious
barber
bee
blend
camped
choir
conceal
desktop
drummer
endeavor
everglades
frontieres
gowda
hynix
kiefer
mack
midair
mitch
mousavi
norm
reformer
restriction
safari
solitary
tai
taka
willis
zealander
##gar
##nded
##trom
##uit
##ulation
##uri
##wald
abbey
bjorkman
courageous
envelope
envisioned
fortnight
frattini
glowing
grilling
hashim
legislatures
madagascan
manipulated
maoists
motive
paso
popping
scientology
servers
slander
smiled
wrought
##atic
##del
##ori
##zon
algerians
alstom
appellate
bailouts
bingu
bloom
bogged
bottled
breeze
cadets
chefs
conducive
enlist
faltered
firings
flaw
glow
handcuffed
harshest
ifp
inclusive
jude
magdalena
mossad
nauru
nl
noticias
reeves
sindh
spurned
streams
sweetened
timeline
trails
uighur
##cus
##dra
##kova
##oka
##urs
auditorium
awoke
bakery
berry
deve
dinosaurs
dispose
evangelist
explorers
holdout
ifc
inspiring
jaw
jun
labs
lambasted
looters
luxurious
machinists
mistreated
padraig
preside
references
reminiscent
sci
sedans
skins
sliced
speculated
##berry
ariane
banharn
billboards
bluechips
citrus
cocktails
coria
davidson
dented
designing
dorothy
dreamworks
flick
glad
habibie
herzog
hungarians
jen
kalimantan
karaoke
lips
nicotine
norfolk
odinga
palaces
pragmatic
presumptive
rigs
sami
screenwriter
seamen
simmons
skyline
stylish
valerie
##iano
##zano
afterward
barnier
berezovsky
constitute
entice
gambian
gifted
improves
incompetence
limitations
malfunction
patrons
philipp
proportions
reformers
resilient
samak
seismology
sinopec
sutton
tito
uniting
vacationing
##kai
##lls
##mie
##tant
bhutanese
capt
costumes
decidedly
divine
evading
federico
ferries
friendlies
gasp
gremio
heiress
imagination
legalized
occupy
prodded
pulls
ramped
serviceman
sheer
snowboard
swallows
##bon
##pf
alec
anarchy
bend
bt
diminishing
diver
dunn
etat
gascoigne
harness
heroic
invitations
kospi
microphone
nfc
plantations
receding
skirmishes
squarely
tni
vie
weddings
##rand
##rey
##uan
aa
abubakar
bi
buddhism
canon
churning
clutch
disturbances
fernandes
firsthand
gadgets
gotti
hansen
hemorrhage
intercept
interpretation
intrigue
istat
leno
limped
paerson
pauline
processes
refund
salad
seville
soes
tattered
underscore
uprooted
villager
yucatan
##born
##dge
##workers
ageing
bavarian
booby
cartoonist
charley
clawed
conceived
impressionist
marketed
nadu
raila
sincere
sleek
stacked
unfortunate
wired
##bie
##mel
##works
astrazeneca
batman
couture
cowen
endemic
frayed
gabba
glitches
impounded
jimmie
krajicek
listeners
mcrae
modify
owning
poachers
ponte
portillo
predictable
quicker
reinstatement
reinsurer
sprinted
strangers
strolled
trickle
unconventional
unjustified
woodland
##chuan
##mic
aeronautic
archa
autism
butcher
cpn
demarcation
estoril
finnair
ire
jianchao
kaliningrad
klan
log
matsu
motives
muammar
norms
orient
privatized
rockers
shaath
vedrine
antiques
auditing
blessed
costume
deceptive
demolish
documented
dreamliner
eiffel
ensuing
erupting
flaming
governed
gunshots
humiliated
kaiserslautern
kicker
kilogrammes
machetes
mccall
parishioners
sermon
shih
spills
staunchly
stephan
varieties
##ates
##bee
acclaim
anelka
argentines
avigdor
bioterrorism
clarification
clung
contributors
cooked
crusader
defer
divides
domestically
englishman
fayyad
frist
intestinal
kharazi
kharrazi
kunduz
kuwaitis
lutheran
maddux
majlis
mutilated
peasant
rebate
reparations
unborn
##kis
##ucci
accountants
albeit
bash
boiled
boomers
ciampi
colt
concentrated
couch
curse
dravid
endure
fei
flourish
frequency
garnett
girija
guerillas
landlocked
pac
pcs
qualifications
resorting
summon
therefore
tomatoes
unexplained
unfavorable
westinghouse
yunlin
##eer
##mation
##tr
accomplishments
ahold
arcelormittal
asafa
cellphone
claes
commencement
crumbled
decker
dresses
epidemics
georges
malacca
maltese
manipulate
mishandling
nolan
resettle
revisions
roaming
spelled
swamp
val
violators
wooded
##ibility
##nese
aisle
aspect
blunder
bruton
cablevision
capsule
chertoff
dade
denials
dominica
duval
faruq
fraudulently
industrialised
manama
mankind
marginal
moroccans
nightly
obey
qassam
ralf
roque
seinfeld
sundaravej
##cia
##quet
##rung
##table
alumni
assessments
bananas
butch
calamity
caller
calvin
comparable
conocophillips
convicting
cub
cy
deporting
dgbas
discriminated
dolls
dramas
dung
freshmen
gambari
gilberto
gleaming
glitzy
haditha
hercules
hwang
keqiang
lankans
lukewarm
milutinovic
nonetheless
olson
payne
pingtung
posh
quirky
reinvigorate
rekindled
snipers
sympathetic
##aging
##feng
##ges
##ille
##mine
##owed
aberdeen
aleman
antibiotic
biologist
brodeur
competent
danone
encourages
fade
frills
greco
hectare
igniting
mammals
mapping
normandy
planets
provisionally
quadruple
renovated
telecast
unionized
wicketkeeper
wrestled
zyuganov
##bbed
##lm
##mia
aliev
alito
apache
apparatus
arduous
beck
bloodbath
bred
cadres
carlsberg
champs
completes
cordon
cosmetic
cuisine
doorstep
drubbing
emphasize
enactment
exhibitors
faiths
fenerbahce
garuda
goosen
infosys
kok
labored
lingered
literacy
mainstay
oceanic
prejudice
printer
prius
reaffirm
rochester
rods
rowland
semiconductors
shortcomings
symington
systematically
tenants
thrift
torrent
tuned
unfolded
weed
wwf
##dome
##late
##lled
##ttered
admired
affiliates
aum
baldwin
barents
bicycles
cabrera
capitalist
chided
context
deficiency
detecting
doldrums
dushanbe
emboldened
filipina
globes
gucci
handsets
himalayas
horrified
instruction
jaromir
jenkins
jockeys
marital
nemesis
retief
sabena
sketch
sweeps
taj
telegram
turbines
tvs
vest
##avi
##ience
anatolian
archive
camping
cancerous
dues
flintoff
gyurcsany
implored
indirectly
intimidating
matti
mayhem
mobilizing
owe
pacquiao
pamela
parliamentarian
piero
qiyue
ratcheted
scouting
simplify
skaters
snapshot
tnt
trustee
tulkarem
victorian
vinny
##ace
##dine
##ela
##lov
broadened
bursting
catalog
cede
commanded
conde
conglomerates
deuba
dianne
emerson
ethiopians
gras
imbalance
inaction
inadvertently
issuance
kissing
precisely
rakhmonov
reads
reelected
relentlessly
reservoirs
silpa
stefano
tandem
teller
texan
versatile
##bes
alleviation
alvarez
bc
blanco
brightest
budding
clearest
courted
dedication
distinct
edgbaston
fingerprints
jagr
mountaineers
nabisco
nanning
nativity
nujoma
tallies
welch
zine
##bis
##hand
##kins
##lish
##right
amending
ark
births
condom
dealerships
falkland
firebombs
flowed
guessing
hotspur
hypo
impacts
jerzy
joked
kissinger
mans
mcenroe
meager
mesic
murayama
pocketed
polluters
ranchers
ranges
resentment
sentiments
snakes
splashed
trove
ugandans
vineyard
##af
##sta
##tly
arteries
attach
bandit
biofuels
catches
conquered
crossroads
derided
flashing
gianni
gujral
huber
invisible
klerk
legalizing
limousine
mast
mint
mosquitoes
participant
pioneered
prehistoric
receded
reggae
sludge
steamy
supportive
swipe
troublesome
vladivostok
wan
worrisome
##ards
##cha
##ill
##lav
##san
##tting
anderlecht
ayala
bucking
cancers
coat
cookies
damning
distracted
dolphin
eastwood
firepower
francesca
germ
handicapped
implicating
intifada
leases
luncheon
marrying
outlines
packs
quincy
rampaging
realities
sharper
smes
snatching
splash
springer
subsided
tele
tomiichi
unthinkable
##iser
##zen
accommodation
assumption
austrians
boerse
cam
caricatures
cruises
delgado
doom
dudayev
filippo
firecrackers
gama
importer
irvin
lester
managerial
minster
nationalized
outdoors
pleasant
sampaio
shoring
showered
siding
spectator
submitting
surpluses
thumbs
trampled
trimming
vaccinations
whoever
zhirinovsky
##lk
##tory
aeroflot
asleep
avatar
bagged
bernd
calculated
carded
enrolled
extinguished
faked
impaired
intergovernmental
invoking
keynote
lean
levied
macarthur
monoxide
nonsense
nutritional
preferences
premeditated
rehnquist
renato
rip
schoolgirl
snowstorms
surcharge
syndicated
vfb
writes
yelena
##all
##iving
##rse
##uddin
##wl
abidine
azeglio
bellamy
bora
cheat
coastguard
depreciation
disagree
dresden
galileo
georgians
grill
herb
hindustan
larsen
lessen
maxim
misused
mozart
napolitano
palacio
penal
precarious
restrained
roommate
spacewalking
strode
suffocated
twilight
uncover
waded
##ata
##tro
adjustments
astana
bam
cleaned
fetus
financials
gushing
hurd
inn
input
karrie
lamb
lo
menacing
nargis
pebble
ploy
redemption
sheng
sinica
stained
strugglers
tubes
tuneup
vat
weaknesses
zlatan
##ean
##heimer
##non
##sts
airasia
beings
bosnians
coffins
cruzeiro
danilo
deforestation
eckhard
emerges
exercised
freshwater
geologists
halve
handsome
harmonious
honeywell
hyderabad
lambert
livingstone
lofty
microchip
motions
orissa
paralysis
quetta
slavonia
altar
arc
bean
benetton
brokerages
cadillac
chow
citadel
confusing
creators
dietary
explored
flavor
frantically
hardy
helmets
ins
languishing
meaningless
procuratorate
quadrupled
raleigh
robredo
roiling
somaliland
spitting
superiors
taiyuan
trooper
waiver
##ars
##beat
aikman
bulgarians
burdened
chic
condominium
dawson
ecology
evan
greed
luka
nudge
purely
shipbuilder
sidewalks
snub
suicidal
tussle
unrelenting
unsuccessfully
##eering
##etti
##hat
##ichi
##mouth
##tick
amin
brumbies
commute
congested
conquer
crossfire
darkest
demoted
dresdner
duchess
enclaves
fended
forgiven
formosa
fraser
gebrselassie
georgi
harsher
incomplete
inexperienced
littered
lvmh
mukasey
nuts
quinn
reduces
salazar
sap
seung
suited
suv
swoop
textbook
toilets
tutsis
vazquez
viswanathan
waive
yongchaiyudh
##bel
##dia
##kers
##ots
afflicted
alonzo
amphibious
arsenic
bilingual
botha
cosby
dartmouth
disputing
embezzled
everett
exhaustion
franck
grey
gridlock
gronholm
guess
jumps
landings
moc
naji
naturally
niece
oppression
pomp
prohibition
repsol
residing
thrash
thrill
translate
tremor
westminster
wraps
##gger
##lton
##play
##pose
##tics
##used
allison
apprehended
arbitrary
bowles
cyanide
elf
evaluating
fray
geidar
haneya
jeanne
lori
mardy
needles
newfound
nudged
override
overtook
reformists
ridiculous
rituals
schmidt
squandered
thwarting
unabomber
webster
yakult
##gon
##nies
##rra
##sheng
##ult
archaeologist
banknotes
calmly
camel
cooperatives
crosses
culinary
dialysis
dizzying
enel
frost
gears
incitement
invention
lehmann
logged
mechanisms
navratilova
obsession
passions
precinct
progressing
realization
regards
remembering
ruf
scotia
shade
snack
sneaked
towed
unifil
unmarried
waits
weeping
##holder
##ished
##lets
##of
##sal
aces
alaskan
atlas
barbie
barn
beefing
begged
characteristics
compassionate
corsican
coventry
destabilizing
ding
fabric
fliers
galleries
gamblers
garros
gmbh
goat
grapple
heatwave
iv
ivy
julien
lexus
misgivings
mobster
navarro
paratroopers
pratt
prosecutions
qinghong
randall
rangel
recoup
ridiculed
rumored
scanners
solicit
sparta
stab
stephanie
sunrise
suspensions
tandja
traumatic
whistleblower
yokozuna
##dad
##worthy
amgen
anfield
arias
choke
crist
debuts
digest
expenditures
fabricated
flashed
fostering
hackett
hospitality
janez
justification
kirch
locking
mat
mayo
montesinos
niche
pesetas
rawalpindi
separatism
serge
slack
snowboarding
strings
teachings
toddlers
wef
##ites
##lding
##nds
##nte
##wski
afar
altercation
arsenals
boon
bpd
breather
bureaucrats
doll
eradicating
framed
gan
gilchrist
hasten
helens
maps
mysteriously
nevertheless
paperwork
payout
perugia
rainforest
rejoined
resurfaced
scary
schnyder
seasoned
snarled
spaces
sparred
tailback
unscathed
williamson
##ition
##rity
##tha
caves
confucius
dominion
dutroux
fluctuations
gently
goats
handwritten
hayes
intimidated
jewels
jinan
kano
marlon
mechanic
median
nld
phan
phased
saddened
shorts
sprewell
teargas
toast
trespassing
##ats
##fl
##outs
##ttering
alerts
areva
chennai
combs
contradictory
defraud
erich
firebomb
fokker
goddess
helio
hostel
ilham
immoral
impartial
leverage
mailing
melvin
mocked
nsc
penalized
petitioned
purdue
rennes
shortfalls
standout
superpower
trailed
worm
yachts
yorkshire
##gn
##lene
##lize
##lman
##nta
##rove
ascent
authoritative
barbecue
basilan
beats
blog
buyoya
cheats
contributor
designation
dieter
discredited
donned
emilio
encephalitis
evgeni
expressions
fending
graders
insulted
janata
multimillionaire
pardons
pena
refrained
sasha
sparing
staffing
swans
truman
ubiquitous
wajed
##cite
##ele
##gor
##ith
##md
apertura
aqaba
babe
bits
buddhists
chevrontexaco
cops
cousins
curry
declassified
detentions
devotees
dili
discouraging
flourishing
furiously
globalisation
hantuchova
heaped
hijackings
hormones
hourly
iditarod
jubilee
livelihoods
martian
nationalities
osasuna
pretrial
punishments
reformed
renegotiate
sainz
silvia
spreads
stamping
stoltenberg
ticking
unwelcome
writedowns
yellowstone
##erman
allowance
artwork
autobiography
clue
constraints
countered
cruiser
deployments
duesseldorf
dustin
dwayne
dwellers
excise
fide
fits
fundamentally
goff
hated
koo
lme
monde
ninety
ombudsman
openers
plotters
pretext
quiz
robben
scrum
springfield
syrians
tractors
unjust
volley
weightlifter
wozniacki
zinc
##ban
##eau
##using
adds
adoptions
allege
balochistan
bloodless
bottling
cashing
chong
coasted
deposited
derailment
funneling
garnered
gymnasium
hasek
hitters
houllier
jennings
lennart
mats
nationalization
outfield
overture
paisley
passover
perched
postage
preceding
redesigned
tate
tenn
translated
unabated
underneath
vilnius
vladimiro
##cos
##ctor
##genic
##hal
##nna
##tters
anabolic
assassinating
bankruptcies
clans
closings
collaborated
deflect
deion
desperation
distraught
endorsements
eternal
exceptionally
farouk
fightback
frederik
goodluck
gravity
gum
midsize
miranda
mururoa
peters
preconditions
realtors
reebok
saluted
solidify
sonny
spam
##ali
##card
##cation
##oo
##ulating
##walk
allowances
berti
brazzaville
chinatown
durao
firefighting
flemish
foam
grove
heavier
hindered
hkma
induced
infuriated
kris
latrell
livelihood
mobilization
nationalism
obrador
pennant
peril
pondered
redevelopment
riga
scorecard
scouring
shiuan
simulated
smoldering
socio
subaru
twisting
varied
wears
wilma
zou
##nic
##ows
##yers
baa
bafana
bruni
cathy
comets
comparisons
confidant
devise
einar
enroll
extends
feinstein
fife
imclone
industrialists
inhumane
interviewing
irvine
isle
khin
linford
lounge
maxwell
modernizing
morgue
muscles
newborns
pondering
remittances
reprisal
seaport
sonics
spd
swell
tallinn
ticked
unraveling
vaccinate
##ders
##iz
##lum
balkenende
boasting
currents
duisenberg
eisner
enqvist
farce
ferrying
fillon
fuji
funk
grammys
groundless
industrialist
ka
newsroom
organise
parvanov
potatoes
practitioners
qing
retracted
reuniting
rivalries
silly
snyder
stared
stipe
stymied
taitung
tevez
tycoons
vogts
yosemite
##ast
##dell
##hp
##ico
##ient
##rp
abdominal
aunt
boosts
botafogo
chlorine
deluge
denny
dunhill
hierarchy
inching
jill
ledger
locomotive
loophole
magna
marvel
meditation
mujahedeen
myth
nafta
norwegians
pistols
preliminaries
pundits
resilience
seldom
sharia
sheehan
teeming
tolls
waivers
watershed
yun
##iko
##lane
##nger
##och
##rel
##yah
agnelli
amos
asteroid
begging
betrayal
booker
cessation
clutching
crusaders
diouf
discouraged
displeasure
disqualification
doubleheader
evolved
evolving
getaway
gourmet
headscarves
itt
kaiser
kallis
listings
ljubljana
marquee
maze
nantou
perks
persona
pows
punches
quanyou
racetrack
rapist
rivaldo
rudi
schiavone
sharjah
underscores
weaver
wit
xie
##ined
##oud
##pan
##rov
##tage
##tones
airman
boast
compare
courtyard
dossier
estos
excavation
griffith
haunting
hoffman
imbalances
impress
kabbah
lcd
limbs
loaned
mahal
matsushita
mello
mistrust
obsessed
pall
powerless
redouble
refinancing
refunds
rehab
robotic
sober
soda
stalls
substandard
tenuous
tow
vengeance
waterboarding
##act
##far
##flight
##hot
##lian
##sd
##ures
abs
accomplish
accuser
arming
besiktas
chants
coles
creeping
gangchuan
getafe
happily
hutus
ig
imran
incite
independently
islet
jetblue
listless
minivans
nahyan
pillars
publicize
pulpit
readying
savior
shantytown
storing
trilogy
villeneuve
##bbling
##dan
##elin
##igan
##lb
anguish
appreciated
articulos
biodiversity
bookmakers
bumpy
chandler
conveyed
dmitri
downloading
droughts
extramarital
idled
inconsistent
inder
inexpensive
internacional
jamali
kanu
levees
marchers
obese
prowess
sickness
silently
stalwart
sympathizers
trimble
unocal
unprofor
vandalized
wrestlers
zach
##lat
##uca
alema
arnoldo
atom
batter
changsha
charleston
collectively
comedies
consignment
contestant
continuously
corporal
falsifying
fathered
flair
funnel
gymnasts
id
landon
leaped
leased
lenin
lodging
maternity
militiaman
observance
preston
rasheed
sacks
sandinista
scalfaro
stroll
superman
unanswered
wagon
wandered
yates
##aa
##aro
##lating
##makers
##oc
##sile
##tched
##uso
activism
aroused
arturo
blanked
busting
clamped
correctional
descend
duration
edberg
eminem
exhaust
foreseeable
freelance
gaping
godfather
hurdler
inspirational
judgement
mandarin
mobsters
occurring
originated
overflowing
que
replacements
shanahan
sherman
siniora
squadron
technically
tempe
thornton
transcript
uc
wharf
yeh
##atory
##dos
##eo
##gun
##lling
##mb
##tner
##wide
##yama
ang
baquba
bausch
boisterous
brasilia
bss
bulldozer
burbank
consisting
gaze
gephardt
guilin
hardships
harmless
hilly
horrible
incompetent
irs
mti
namesake
persecuted
petacchi
pollock
polynesia
rainstorm
rolandas
shiny
tragedies
tu
##aving
##bus
##iated
##ingham
##nor
##tist
##yk
acer
awful
candlelight
capitalized
caravan
castillo
castroneves
cesare
cherry
chihuahua
coated
commandeered
cottage
curriculum
cwb
dilapidated
dwyane
exhibits
fitted
gail
gregg
hershey
hooded
imposes
inbev
inhabited
insolvency
lookout
mauricio
mocking
nathalie
nervousness
overboard
parreira
premiers
puzzled
robes
sacrifices
sarath
slush
tejan
tuzla
unhurt
vests
youngster
##eled
##eri
##ining
##ives
##rose
##sher
##sz
analyzed
arose
arrogant
aspen
awash
brigitte
claudia
clips
cloudy
complying
cosmonaut
costello
creature
doctrine
dove
expedite
faint
fizzled
friedman
gorazde
hancock
hayward
hitchcock
ipc
ipod
jaafari
lan
licences
loading
mayweather
mcgrady
mika
morality
normalizing
outclassed
paksas
pettitte
raptors
restructured
resurrect
rib
rife
sailboat
schoolboy
scolded
segments
sensing
thirst
tit
violinist
##ato
##eva
##itating
##lor
##mond
##sive
##vili
arraignment
ata
bittersweet
boucher
doris
guevara
halifax
hare
hitch
hut
ito
kabariti
kickback
mature
needle
pflp
reliability
romero
satirical
scuttled
thunderstorm
uci
unrealistic
vna
##ffy
##gc
##gel
##hing
##how
##ipping
##place
##rat
##ways
bahn
boone
charming
combatant
curbed
denise
doctorate
dwain
eclipsed
fiasco
giambi
harcourt
juncker
logic
loren
luzon
mcgreevey
mending
messy
nasional
nicolae
nzsx
prescriptions
rattle
sally
sandwich
santer
sezer
shu
sobering
socialite
squatters
sticky
trickled
triumphs
undetermined
uniformed
##len
##rot
##rus
##umi
admirers
albar
attain
ayad
boardroom
brunt
caa
caledonia
carmen
crowe
dzhokhar
edf
embryo
forbidding
gael
hollinger
imelda
muscular
necdet
olsen
placement
pubs
rawlings
serra
shady
swisscom
tesco
unchecked
viability
zeroual
ziana
##aged
##arian
##kas
##zar
apollo
bestowed
bishkek
bochum
chanda
compromises
condit
facial
falsified
fonseka
futuristic
hamm
hooked
ida
inflicting
integrating
jewellery
kerr
liar
patented
patrice
pboc
peaked
pioneers
rau
rebecca
reschedule
rosy
samir
sauce
sehwag
sneaking
stepanek
tory
trailers
willem
##aan
##ents
##lma
##nch
##ndo
##nga
##sil
chained
checkup
clergyman
consequence
consolation
consulates
coulthard
cull
dane
darrell
debit
defaming
docking
dodged
expectancy
gangland
hemorrhagic
housewives
incorrect
innovations
khost
kidman
landfill
leung
minn
nyunt
panther
pervasive
peyton
ranged
reeled
regiment
rescind
rosie
rwe
sharpen
skyscrapers
solidly
spinoff
thunderous
trajkovski
unfamiliar
##gated
##iger
##kable
##mu
##osa
##pes
##sworth
adapted
affaires
alarms
baxter
bugs
chunks
drained
dueling
elie
fireball
gianluca
grandchildren
karpov
lakeside
lindros
marina
maternal
mutilation
neutrality
overshot
puppet
recaptured
shorten
soweto
tar
valve
virender
zafarullah
##awa
##eca
##eel
##int
##made
##oh
##page
##tl
baked
belichick
bitten
bloggers
cameroonian
cebu
commandments
compel
danes
donaldson
ghazi
heartbeat
ibrahimovic
instance
laureates
malvo
masterpieces
mater
meng
millionaires
offence
offshoot
phoned
preceded
rational
restated
scania
seabed
shijiazhuang
slaughtering
slumdog
sparring
testament
thames
thereby
torricelli
unconditionally
utilization
wee
##azi
##cott
##dling
##ef
##ffed
##qua
##rit
##zan
abiola
azores
booed
ditched
eaten
enacting
establishments
fm
fomenting
fulton
geert
golkar
grosjean
hanshin
harvests
heel
heidi
ituri
jonah
khai
kisangani
marta
noriega
northernmost
onset
pyrenees
renate
rubbish
sloppy
soggy
souvenir
splinter
strategically
sufficiently
synonymous
taboo
treats
##dong
##hurst
##iring
##nse
##tine
abnormal
ambon
blades
braving
conner
corretja
dealership
dialogues
discriminating
donetsk
downpor
freeh
hal
humane
joshua
kuo
landless
latina
laurence
mahendra
mdgs
norwich
openings
perceptions
pharmacies
plaque
processors
reminding
renamo
rocketing
rope
scorsese
shall
singaporean
sophie
souls
storey
tunes
turbine
valentin
verona
waldner
watered
yanukovich
##df
##ines
##isa
##jah
##rman
arrow
bump
carve
cater
commenting
constellation
detectors
dislocated
eliezer
energize
fabien
fairfax
fukuoka
furthering
jozef
koch
kowloon
liamine
mirroring
moeller
mounts
newmont
nicholson
para
pasta
pertamina
prevents
psychologically
qualcomm
saratoga
segregation
shameful
sputtering
stranglehold
tiffany
tigris
unconfirmed
woodstock
xue
##ene
##sie
##tment
##zzo
acrimony
awakening
bakassi
ballesteros
benchmarks
bowls
bumped
ceased
conservancy
cradle
diverting
fabrice
fairs
faure
financiers
fingerprint
freezer
fritz
frontman
funneled
gainesville
haikou
hallway
handcuffs
heralding
huaihe
ills
ilya
impotence
leaned
leopard
lip
mann
megawatt
mirek
narrower
onlookers
outfits
palau
posada
pumas
refiners
rosneft
rua
sc
schuessel
topolanek
ushering
validity
yossi
youzhny
##ati
##corp
##group
##hman
##tai
##view
##while
abductions
accreditation
advertised
appease
atypical
beckenbauer
brash
bret
bulldogs
canton
carving
defends
embankment
figo
handles
hesitant
ict
ineligible
inflamed
injustice
insure
javelin
khaleej
laszlo
legions
lomb
majestic
marlboro
martinique
matsui
monroe
overheated
ozeki
pietersen
proponents
registrations
reich
reliant
relic
rhythmic
sanader
swaths
travolta
volunteered
##bridge
##iam
##mers
##oe
##ond
advani
alexis
ax
bacon
balked
bta
carmelo
changhua
chulanont
coronary
cyril
decreed
demolishing
diminish
disabling
dissatisfied
eyadema
fountain
fraternity
frequented
gaudio
gruelling
holloway
informer
insects
intra
isles
ismael
jayasuriya
liege
madness
merits
molecular
ordination
oreal
panhandle
rails
randolph
rapes
reigned
ruby
rumbling
satyam
scream
scuba
sonar
totti
tuareg
unlawfully
upped
##ces
##db
##ffling
##iri
##nza
##ob
##sted
amish
arabiya
binge
bothered
clarified
cooperated
cozy
crow
dissolving
einstein
essence
extracted
hesitate
indignation
kewell
machete
meg
milo
mountaineering
mundo
nursery
petrochemicals
png
quasi
robots
sabri
seibu
socially
spoil
stubbornly
subsidize
thugs
tolerated
unauthorised
upgrades
upswing
vacancies
vampire
##bor
##kle
##lot
##nam
##ple
##pton
##var
abe
andriy
bachelor
cardiovascular
cartilage
convenient
cookbook
copying
curtailed
davidian
disturbance
dover
extravagant
genentech
jalabert
lancaster
leniency
lieutenants
louvre
myskina
sanath
schoolteacher
stardom
ta
valujet
##aj
##ave
##graph
##him
##lai
##lay
##liness
##nne
##olic
##rkin
##uta
appropriations
ari
arlen
batted
bledsoe
blindness
brandishing
bravo
browne
carp
cemented
cough
counselor
crest
dictionary
dies
disbelief
disqualify
easyjet
efficiently
embraer
encyclopedia
energetic
ensemble
faking
ghetto
glimmer
inflict
lansana
misunderstanding
prolonging
reconstruct
reprocessing
seaman
sinatra
sparsely
suitor
usage
vaulted
yala
yih
##hone
##neck
##rland
##uary
##vas
##women
administer
altering
aps
avery
bloodletting
broadest
buffaloes
cha
cpp
damp
desecration
doused
fantastic
heighten
jerk
laundry
lippi
medecins
miniseries
mountaintop
norsk
oxfam
patrik
provocations
pyramids
restless
rugova
scratched
seve
spc
surayud
sweeney
tenders
thefts
##bag
##eka
##jet
##wu
algae
billowing
blindfolded
coughlin
dimension
earners
eurovision
fresno
gasquet
grader
harald
hicham
kit
loopholes
momentous
nightclubs
nomura
olli
overshadow
playmate
plumes
politkovskaya
receivers
recounting
refrigerator
scanning
schiphol
sloan
tomato
tracts
valladolid
vigor
vitali
wiesenthal
wilders
wushu
##dation
##isk
##lal
##rber
##zzle
biljana
biofuel
blustery
bolivar
cardboard
demographic
duhalde
envelopes
gomes
happiness
hp
inheritance
irreversible
libyans
lifts
loc
mercenary
nc
noah
parlor
payoffs
plume
pronged
rae
recounted
residences
roe
screamed
sequence
shuffle
sirleaf
slips
squalid
una
valdez
videotapes
weiss
##cent
##fan
##pc
##sburg
##tre
##zio
asturias
bai
bauer
belle
betrayed
bharti
biker
blaise
burlington
clocks
dated
destitute
dhl
edges
falcon
fashionable
flavio
groom
guenter
honey
hsin
katyusha
leipzig
loom
lowell
manuscript
neighborly
orbital
outreach
packaged
panchen
phantom
plavsic
popped
prewar
psychology
recommends
rhine
romped
samba
sanya
scams
stack
tirade
tse
unicom
##ael
##aux
##bles
##iled
##oro
banja
blockades
blond
boring
brittany
celso
certainty
circling
clone
cloth
confiscation
dampening
deeds
draconian
fiance
garrett
gulu
harvested
impeached
impunity
incendiary
insolvent
insurrection
intensely
interpreted
inzamam
kite
locks
macedonians
malicious
miniature
ms
prefers
printers
puzzle
railroads
rompres
rump
shevchenko
shirley
simeon
simone
skated
sleeper
snowfalls
tomba
tooth
waca
weird
widows
yung
##bl
##cu
##rily
##tley
##uma
##vc
atta
bangzao
bearer
bohai
budge
chavalit
chili
confidently
considerations
cory
dreaming
escorting
fetch
finn
hilary
interrogating
kuan
leveling
loosening
males
mazar
mcgraw
monarchs
notify
orphaned
peek
pinpoint
rude
sabotaged
schuettler
scrumhalf
skinheads
spartak
squeezing
suna
sur
surgeries
weighs
weir
##crat
##gers
##rb
##uda
abner
atrocity
basking
bouts
bulger
camden
celebratory
compelled
controversies
crossover
dodging
drift
empowerment
frosty
glendale
halonen
hamed
jianxing
kashmiris
lag
lal
laurie
loudly
magnet
mardi
memos
nanny
navies
newsletter
obviously
possessions
prod
rafa
readily
shrunk
steepest
supervising
swear
tarmac
ual
unctad
underpinned
unloading
vicinity
vieri
wastes
##dley
##logists
##mitted
##quez
##rch
##sc
##weight
ardent
astronomical
backbone
baggio
baghdatis
biomedical
buyback
camouflage
candid
carpenter
confirms
corrected
ellison
facilitating
giulio
hog
hyped
inevitably
invaders
madeira
mcdowell
moenchengladbach
moviegoers
occidental
olivetti
reclaiming
rendezvous
retires
roth
sistani
smartphone
surges
wah
warily
##cting
##gu
##law
##rass
##tating
##ulated
announces
beast
beltran
bharatiya
bookings
bovine
brescia
claire
crawl
diners
dion
entertainers
futile
gatlin
glaciers
golfing
groupe
gusts
haaretz
hahn
hakim
harley
hopefully
imperiled
instructors
joyous
kelley
kellogg
leadoff
liter
lockdown
mara
melee
myself
nano
nate
normalcy
oncoming
pattaya
pitino
placid
scans
shipyards
slender
smoky
symbolize
villiers
##ache
##inen
agonizing
avant
barbs
barrett
behemoth
blacklisted
boyle
brothel
bystander
critique
dimitris
distrust
dwindled
eleventh
greats
grips
gsm
jarrett
maccabi
martyr
mascot
michal
misusing
nurture
primitive
rescinded
retiree
sabbath
scion
severity
walled
yemenis
##hard
##ugh
axa
barefoot
bartoli
boao
bookstores
celta
citic
collisions
congratulating
crimea
downstream
edmond
erotic
feathers
gilts
hatched
hunkered
insulin
kfor
knights
mapped
matthews
minnows
petter
plunder
presses
realm
retroviral
royalist
rust
seeker
snared
stainless
tarja
tuning
turnpike
underestimated
withdraws
##bit
##dic
##hang
##hoe
##lessly
##lp
##nberg
##ote
##tering
##ub
accelerator
andry
arjen
aviator
chateau
clears
commands
concord
contrasting
derived
dsec
electricite
frogs
fsb
grandmaster
grapples
headscarf
howell
illiteracy
isa
keller
krakow
laughed
mandalay
mishandled
rebuffing
reimburse
reunifying
rom
scars
secluded
stamped
sutherland
sylvester
tailspin
thumping
toting
unblock
woodbridge
wyeth
xbox
yamaha
##cco
##cheng
##mus
##poulos
##rries
##tana
##tical
##weed
##xico
acknowledgment
addicted
agony
andretti
artworks
assignments
barton
bathtub
buyouts
californian
censors
cfa
chick
cisneros
citywide
deception
degradation
dismayed
distorted
dope
enquiry
faa
filly
fouad
haniyeh
harbors
indiscriminate
informing
insurmountable
isu
kathy
kayak
lander
olympia
pemex
platini
prologue
refinance
ribs
saa
sanitary
sderot
seriousness
sifted
skid
spearheading
staggered
sulu
superstars
talal
throats
thyssenkrupp
trawlers
waratahs
zamboanga
zell
##ail
##ann
##ishment
##mission
##onal
##quel
##uff
##vity
abilities
ambulances
andorra
arbitrator
asuncion
averaged
bedford
belgians
chalabi
chewing
chievo
combing
constituents
culled
desecrated
desertification
disorderly
emeritus
exhibited
fearsome
fertile
flashy
fruitless
gortari
hallmark
harbour
haute
highland
inclined
isabel
kerviel
lauderdale
macroeconomic
metall
militarily
ntt
plummet
porcelain
renovations
roamed
severing
skyrocketed
slaughterhouse
slows
standardized
streamlining
stump
tun
unprofitable
unsettling
veils
wherever
wiring
witnessing
wrecking
yew
##dden
##gling
##pg
abstract
approves
arianespace
atmospheric
bunkers
buzzing
czechoslovakia
equitable
errant
evoked
federated
fuller
graduating
haggling
hrawi
insanity
jirga
keelung
kramer
liz
lothar
motorsports
otago
ploughed
ponder
remorse
rendition
ri
saxony
shaved
sheltered
specializes
surgically
templeton
tract
transcripts
trouncing
trucking
upstaged
yahya
zebari
##books
##bow
##eration
##ggy
##gies
##gold
##horse
##ila
##llen
##ques
##sin
acknowledges
anchorage
annul
archeological
assumes
azeri
batters
boft
bondholders
boyhood
brothels
calming
carr
cctv
coats
cooke
daiwa
defaults
doc
dodd
eberharter
exercising
exploits
finns
forested
forrest
gazans
ghosts
implicitly
impromptu
judy
leonel
levin
longhorns
nostalgia
notification
outpaced
perch
poets
potro
premiered
profoundly
rabbit
rajoelina
reciprocal
schizophrenia
scorn
siena
sketches
slapping
spiegel
sunlight
taser
tendency
townships
undervalued
updates
worcester
zhengzhou
##ass
##care
##ep
##hara
##lik
##rdy
##ressed
##vision
##wat
adolescents
ahram
algarve
anonymity
az
backer
beware
bother
caliber
centrifuges
companions
confiscate
contractual
converge
corus
dangling
depots
disregard
equals
esa
fervor
fiesta
flop
geo
guillaume
handily
highbury
hoddle
ideals
incessant
independiente
inhuman
kivu
knox
kpmg
lantern
lapd
lenient
lugo
lunchtime
mauro
myriad
nastase
newsprint
op
ouattara
outlawing
overland
pancreatic
parental
posthumously
principality
prohibits
robby
romeo
seton
sidestepped
stairs
tran
tzu
unload
##cky
##dc
##hine
##ln
##manship
##mous
##pies
##tex
##trust
##wer
adjusting
alassane
anguished
bolted
cahill
ccb
chunichi
cowardly
cruiserweight
davide
emmitt
explanations
exuberant
flanked
fossilized
genetics
geographic
granada
graveyard
haris
hideo
holidaymakers
humbled
icj
interception
jakob
mediocre
microelectronics
nautical
pacemaker
pentium
pieter
posco
ppp
rato
rebuff
reignited
rex
salon
shrug
soundtrack
subcontinent
subscriber
suppressed
thanking
tt
vettel
##dering
##eda
##ense
##rone
##tad
##ude
##zz
anticipate
barbarians
bashing
bastille
breathtaking
decimated
descending
disruptive
dodi
eln
examples
faldo
fries
garde
gardner
haley
hardliner
hollow
jingsheng
leeson
liabilities
malley
mccormack
module
outlooks
patches
pau
peg
pines
presumably
progressed
proximity
puck
regency
render
rocco
safest
sarasota
scares
sheen
skittish
softbank
tallied
titlist
tranquil
usair
vw
##bbs
##bone
##dr
##du
##etic
##evable
##grad
##lett
##lity
##media
##nov
##thi
##zheng
attache
backpacker
barrages
catalunya
contraceptive
cylinder
cynthia
dirhams
dixie
drank
expulsions
gag
holly
imperative
jolo
kadyrov
kissed
klose
logjam
lomu
mountaineer
norris
officiating
operas
pathologist
payoff
pilgrim
poignant
polite
proposes
repulsed
resorted
salvaging
salvatore
scottie
sharma
shenzhou
sinhalese
succeeds
summons
taslima
usaid
yerevan
##bet
##culture
##done
##face
##hall
##itive
##lining
##vert
##vich
##watch
##world
abortive
artificially
beaming
bitterness
breweries
circumcision
clerks
coax
collusion
congresswoman
constituted
demining
depositors
downloads
edt
eintracht
enforcer
excavated
extraordinarily
facade
fay
foodstuffs
freeport
gatt
gayle
giancarlo
greenberg
hakuho
hellenic
incorporated
jonbenet
lam
leaping
lei
lexington
mangled
masterminds
nuevo
nyerere
overruns
penitentiary
planemaker
princes
scala
sensors
skeptics
sprang
terra
unused
vent
##bble
##chuk
##lights
##ridge
agricole
announcer
baffled
bladder
christchurch
cnpc
coastguards
correctly
crowns
dee
downsizing
dudley
eyebrows
fabregas
fascination
gatwick
gods
gut
hangar
hoshyar
keepers
lome
manfred
marketers
mcclaren
melanie
noose
pariah
parry
parting
pedophilia
pius
possess
privatised
qadeer
regents
rehn
renounced
resembles
ricin
snarling
tasmanian
tdc
temptation
towel
treasurys
wasim
yo
##huis
##list
andaman
annie
antlers
aquila
asmara
chiu
clever
coconut
consoles
desolate
dial
disable
disproportionate
dlamini
emptied
entangled
est
flagrant
fond
hannah
informants
instrumental
intervening
josep
louima
lucie
mathematician
mullen
nikola
nomo
painkillers
plough
polisario
rodeo
rory
sabotaging
satisfying
savannah
shareholding
sharpened
soundly
stephanopoulos
subversive
swapping
tietmeyer
tui
unprepared
velez
whampoa
##eted
##hui
##kan
##keeper
##kel
##nen
##star
##udin
alsthom
anarchists
anil
casts
clot
daisuke
documentation
drainage
droves
farina
fda
fini
forgo
gowns
interfaith
kitty
kufuor
lenovo
liberate
liberated
lipton
loyola
luxor
melted
mirza
novotna
organiser
overtaking
piercing
predator
putter
ratcheting
rebirth
reining
rigid
rosario
saatchi
snacks
takanohana
toughened
tout
unsold
verdasco
vigo
yasushi
##ash
##berries
##dou
##imi
##itor
##lized
##oulos
##stone
actresses
alatas
authentic
beachfront
beethoven
belated
berri
birendra
blackened
blazy
bovespa
canaveral
cerebral
circled
combines
culminated
curve
dare
deportations
deteriorate
douste
elysees
erect
estates
exemptions
fuzzy
gio
grandparents
hotbed
ictr
implied
jp
mileage
mistook
piloted
relocating
seaboard
sincerity
socks
spouse
subscription
syndicates
tahoe
testy
unhealthy
unreasonable
vaunted
visionary
wardrobe
wilfried
##ae
##cial
##eli
##het
##ilin
##kind
##lea
##loring
##nder
abating
alto
apologised
atalanta
authenticity
backpackers
bade
bates
bernabeu
bethesda
bfa
blatant
captivated
che
chronicled
collateral
containment
csc
culprits
cultivated
derailing
dismembered
elaine
excesses
fowl
gabriela
guterres
hanna
inserted
intending
interaction
interrogate
investigates
juggernaut
kenyon
lagged
latinos
levee
menino
motivation
narathiwat
oates
overshadowing
paramedics
proclamation
quarrel
radios
rangebound
ratifying
ruslan
scandinavia
slots
spores
sprung
staffer
undemocratic
unregulated
vacate
vacationers
##beck
##berger
##eet
##ib
##pel
##people
##rna
##verse
adolescent
anz
appalling
azul
casket
cooks
digits
exits
fascinating
gingerly
granma
harvesting
headingley
hyde
indifference
joking
leprosy
merry
morally
mushrooms
nicky
norte
notoriety
overseer
paychecks
picnic
poem
popescu
possessed
racers
railed
reeve
rekindle
rites
rocca
schengen
sega
sorting
sternly
supercomputer
swapped
tailored
testosterone
tirreno
unseen
voronin
walters
ypf
##dd
##guchi
##ifiable
##iter
##omo
##rable
##rice
##shop
##tam
##zzled
acquaintance
adherence
adriatico
aerials
alliot
artest
bravery
burdens
cecil
comatose
danielle
decider
devalued
ecus
extensively
fax
fonda
frazier
furyk
giggs
gloucester
guesthouse
halle
hawking
hears
hemingway
humberto
impatient
induction
kits
linux
madame
moshood
orbiter
overhauled
overtaken
raphael
relies
resembled
sacrificed
sandstorm
seagram
solace
stockholders
surcharges
tommi
torino
tulsa
unwittingly
whistles
wreak
xstrata
##agh
##bb
##chy
##foot
##ig
##islav
##vil
admiration
aetna
aruba
bites
blower
broward
clyde
compensated
contraception
curiosity
dailies
decathlon
deere
ecclestone
envy
evenly
forfeit
funcinpec
gillespie
gusting
handler
heinous
insured
kagan
kocharian
massively
mcchrystal
melzer
microwave
molson
motc
newsday
protege
sanyo
saskatchewan
steadfast
swarm
swastikas
unnerved
ural
useless
##ais
##aming
##cross
##eal
##ello
##ema
##fang
##ffle
##nton
##rist
##sfield
##urse
alvin
anibal
bergen
blunders
cai
caste
catalyst
complacency
complied
compuserve
cured
declares
dimming
dunk
email
essex
fielded
flavia
flouting
forums
independents
integral
intractable
itf
ittf
karol
lana
malaise
millon
mitigate
murrayfield
odom
panasonic
pensioners
polished
powering
puzzling
rahim
rancher
reactivate
riven
saddled
sainthood
shoplifting
silicone
slippery
stakeholders
stash
stiffer
stuffing
swindling
tamarine
tones
tracing
trusts
venturing
ye
##anza
##arity
##chem
##hart
##lga
##nging
##rut
##test
absorbing
adha
alight
antiwar
arne
bekele
bullock
burglar
bye
camacho
carnahan
cheek
confiscating
convergence
cookie
crackdowns
dared
detonating
devotion
discus
disposable
distraction
dominates
edible
edith
expansive
forgot
hai
heptathlon
indispensable
lok
maligned
neville
nightfall
obsolete
pippen
pots
prudent
rainier
resurrected
reverts
shamil
shielding
shoreline
signings
socrates
solheim
stacy
surreal
tanasugarn
terrorizing
unnoticed
wavering
wrested
##athlete
##core
##ivating
##lance
##sper
##sto
##uf
allah
anemia
arrows
bbva
belo
berdych
cairns
cesc
chooses
coetzer
crafting
drinkers
favourable
floundering
hospitalization
hugs
impatience
inhalation
insane
jiahua
liberalisation
limping
mackay
meadowlands
mri
netting
parted
passers
perils
placido
plundered
poe
proclaim
protocols
relaxation
rerun
rooftop
safeway
shenhua
slides
spikes
stature
steamed
tiebreaker
traction
trezeguet
twente
tyres
undeclared
unfurled
unstoppable
valdas
vanhanen
vanity
vigilante
walkouts
watts
workshops
##arov
##gic
##iyah
##lain
##mates
##sey
##sical
##xian
acp
bulletproof
burnett
businesswoman
calin
carriage
cheung
cisse
clayton
convenes
cumulative
defections
drugstore
eddy
exempted
fervent
gdf
gown
heartfelt
illustrious
indurain
levelled
logs
marbury
mellon
menezes
messenger
mexicanos
mikael
moftec
ned
ovarian
peking
pulse
qualities
ratsiraka
reservist
riordan
sniffing
surroundings
taco
tastes
toothpaste
twists
warden
wires
zahir
##cap
##ony
##oux
##power
##rri
##tate
abdur
adoring
anglicans
aragones
atm
bald
blade
blazed
calmed
commenced
confrontational
cordoba
dentist
deserts
directionless
disobedience
donkey
drenching
edict
encountering
evaded
festering
genital
horseback
housewife
huts
jaswant
jerseys
landlords
maids
mclean
monty
msf
oats
orchid
peninsular
pentathlon
perkins
prescott
priesthood
schwarz
skakel
smelter
spaceship
swerved
versace
vfl
wada
workplaces
##are
##dication
##dles
##ement
##hole
##jure
##sia
##ule
##won
adversary
alcan
amputated
axworthy
bonanza
breasts
cameroun
chalk
chatting
chronically
complexes
conjunction
cpv
crimp
customary
dedicate
diario
explicitly
frigates
gouging
huntington
iaf
jeeps
kfc
koruna
maastricht
melissa
mit
mold
nabih
nieminen
obscurity
omaha
omega
ounces
payouts
pinto
politburo
porch
privileged
quang
ramping
retribution
ringed
riskier
schumer
smoker
soto
squabble
td
throngs
tien
tyrone
warhead
wayward
wetland
whisked
##ads
##dp
##iva
##lyn
##ntal
##oi
##reep
##rings
affection
bees
brimming
bulbs
camdessus
clipped
concepts
cues
culling
deco
dfb
dictate
divest
electrolux
electronically
fang
fetuses
frenchmen
goverment
hanks
hrbaty
insect
irate
isolating
kpn
ladder
laughter
legionnaires
makinen
moderation
musa
nearer
pennetta
raich
ranieri
recuperating
resolute
rests
rooting
sanford
screeners
scuffles
separates
slurs
spiking
srna
staking
steelworkers
stephon
tariceanu
terming
tilt
totals
traumatized
wholesalers
xiao
##bella
##eem
##gled
##nail
##nding
##riya
##ssi
##ttes
##wall
adamkus
administering
bagram
bon
brokering
chastised
coinciding
concentrating
confer
congestive
consume
corazon
dassault
destabilise
disapproval
doherty
embedded
erin
essay
estudiantes
exited
fiba
georgy
gravel
gustaf
handshake
herewith
impede
jamming
kashima
kimberly
levine
llp
montpellier
nandrolone
nestled
pretending
regrettable
ripken
romp
sabha
satire
sermons
stocked
sudirman
tak
tearfully
toughening
wheeled
winehouse
##anic
##fc
##ggle
##hl
##hoff
##kh
##log
##nate
##run
##say
acura
agustin
akashi
akram
batasuna
bribed
buthelezi
buys
cem
detachment
dino
ebbers
eked
enforcers
entebbe
entrusted
fool
fringes
functional
gdansk
iea
incorporate
indosat
irony
kamuzu
kanye
kwame
laughs
lim
lyle
mancini
maturity
msnbc
oliveira
pairing
pavement
peculiar
proceeded
rajapaksa
reassigned
relays
repelled
reshaping
revellers
roam
roundup
sapped
semiautonomous
shuttlers
siro
sneakers
sowing
stagnation
stumble
topless
turnovers
uighurs
uninhabited
valverde
##bies
##cock
##gue
##liss
##moto
##nos
##nut
##orne
##writer
airshow
akin
alkmaar
bludgeoned
bobcats
boi
brahimi
buzzer
candle
captains
caviar
compensating
constitutes
dereliction
disks
documentaries
dovish
ecfa
edgy
hooliganism
hypocrisy
intensifies
invasive
lectures
lenny
manipur
manuscripts
masri
montserrat
occupational
organizational
overriding
packets
peanuts
pires
prada
pregnancies
pricey
sainsbury
silenced
steaua
stereotypes
supertanker
surround
teliasonera
utterly
velvet
vending
veterinarian
wakefield
womb
zapatista
##ern
##imating
##lda
##lee
##oubek
##tations
##zai
boldly
bosque
bursts
cellucci
cemex
choreographer
cling
continuity
cutoff
decapitated
decrees
differing
gagne
guiana
isiah
jalalabad
kawasaki
leaner
massu
motorcyclist
nails
painstaking
panetta
partying
polarized
presidium
promulgated
quds
recognizable
scraped
shortest
skulls
spurt
undeterred
videogame
villain
weah
yelling
##att
##cat
##iously
##kley
##nized
##ried
##uce
##uchi
appointees
backstage
banished
bedouin
bern
beyonce
bskyb
canisters
cellar
collaborators
colosseum
cynical
demons
doohan
drizzle
eerie
emu
falungong
goose
hoc
humidity
inception
lagarde
lampard
liberalizing
mcbride
microprocessor
minefield
modeled
nailed
natasha
osprey
painfully
pietro
pol
preschool
prosper
qureia
rapprochement
revolutionized
tagliabue
taxing
termination
texts
thorn
toluca
transmitting
unlock
wading
wooing
yat
zionist
##ancy
##ax
##erg
##gard
##ht
##lf
##nard
##ono
##riating
##thing
##ured
amer
bertha
buena
chela
chunghwa
compaore
detector
devout
dialog
em
exonerated
grudge
jakaya
jared
jesuit
jos
kikwete
leakage
militaries
offspring
organisms
penalize
pileup
replenish
sabre
shing
showcased
spla
sportsman
summed
tab
tara
targetting
typhoons
unpleasant
waigel
wiretapping
wishers
##bird
##cano
##eers
##erated
##fies
##itable
##lala
##logical
##lores
##mobile
##ners
##rish
##rth
##tling
##umann
##working
andreotti
appraisal
avenues
barker
bottler
carlyle
carruth
chemist
clouding
collaborator
cordero
cordoned
documenting
dominguez
drones
dunga
frenetic
guggenheim
guidant
halim
hernia
ians
influences
kiwi
korda
lagoon
landlord
lena
liberians
mammal
misguided
muse
navigate
nusa
onstage
ordnance
pinnacle
reminders
resettled
reykjavik
rockwell
rower
selections
stalked
startled
symbolically
thrower
unethical
unintended
uptick
uttered
veterinarians
wildcats
workings
workouts
##ados
##anne
##brook
##chu
##ddin
##mei
##ndi
##ole
##quette
##rked
##rnal
##tful
##ther
##tong
adnan
ancic
baden
brigham
bundled
bushehr
clunkers
constantine
cosmic
defrocked
echoes
effigy
flushing
hasidic
hinge
infiltrators
instances
iom
kenenisa
kidneys
loads
lucy
medicinal
mildly
mussina
ondimba
ordained
pamplona
paves
prevalence
repatriating
resemble
ropes
salah
sardinia
satan
stockpiling
swirl
ting
toure
usf
valleys
warmth
yanked
##ayo
##ink
##llah
##mbe
##nc
##oz
##qvist
##sse
##war
##wear
auctioneer
banque
brasil
cinematic
clausura
comics
craze
creativity
desks
dilma
downside
fabulous
females
fixtures
fractionally
handouts
haniya
hugged
hurtling
hurts
ipswich
jammeh
jlg
kasuri
khomeini
kristina
laredo
mentality
metz
preached
pregame
profited
propelling
propulsion
pursues
recriminations
sagged
samoud
showtime
shutter
sinha
skirt
tackles
tatters
tendinitis
tinged
transfusion
underwriting
unfpa
valdes
wallet
##craft
##hire
##hm
##mart
##oda
##olo
##pal
aggravating
auctioneers
backpack
boiling
boutique
bows
canvas
cecilia
cures
deprive
discriminate
ecosystem
enhancement
exhorted
fuming
goetschl
guadeloupe
gus
hay
hennessy
impresario
inca
jarkko
junction
kamchatka
liao
loggerheads
mangosuthu
manh
mannesmann
marker
norbert
nzo
packer
papoulias
perimeter
philanthropy
plasma
rancorous
realignment
redesign
remedies
sculls
sexuality
sniffer
stoppages
thrive
waist
whisky
zinni
##aka
##ault
##chanted
##cho
##dze
##glio
##herent
##itt
##max
##mony
##mos
##nel
accomplishment
alfonse
atherton
awake
baritone
bulging
clarity
colbert
commence
conan
conditioners
culminating
depleting
draining
eclectic
fellowship
fleets
flier
frog
glaring
guangsheng
guardsmen
guyanese
higgins
inherit
intermediary
intrusion
ky
lafayette
lyndon
manor
megan
milos
missteps
mswati
musashimaru
nagin
naharnet
ning
nkosazana
nosed
overthrew
penchant
peruvians
pest
pim
punctuated
rojas
sinister
spinach
splintered
stocking
tenacious
toxin
ty
uber
veracruz
wii
zambians
##aria
##awan
##eria
##iss
##iting
##lous
##minate
##pable
##riere
adorned
ammonia
banca
bared
bart
blessings
boos
carriages
colliery
commercially
csa
deposition
diagnostic
dolan
frontiers
glazer
gorillas
hardaway
ichiro
ilan
inefficient
jogging
karate
kevorkian
kravis
kyushu
lakhdar
launcher
leftwing
lund
mutinous
offended
overpowering
peretz
petersen
plata
poems
pottery
quote
quotes
reconsidering
ricans
rousseff
scrutinized
seymour
sherpa
shoved
sifting
sighted
silajdzic
sq
surrey
sustainability
unreliable
untouched
vanessa
voltage
warhol
whistler
whitewashed
##ares
##bat
##ented
##iff
##mayer
##nating
##nomic
##nted
##owing
##qi
##raz
##tree
##vable
adversely
arrogance
audiotape
audits
bangui
baskets
bergman
brenda
canvassing
careened
civilizations
cotabato
decorations
devastate
driveway
duped
duran
firebombing
garth
gusty
hekmatyar
herdsmen
hoarding
hodgson
hurried
implant
juveniles
karnataka
lapse
layup
leaky
massing
mummy
outnumbered
oven
physicists
prospecting
racking
repel
revaluation
russ
savored
screenplay
seselj
sheldon
sleet
strips
submission
sugiyama
sybase
tablet
tantalizing
temblor
toned
trademarks
trafficked
trotting
windshield
yachtsman
yue
zabel
##abad
##closed
##enzie
##ester
##fort
##liang
##lide
##nko
##rton
##sir
##uter
##yrup
accessory
anxieties
avandia
batistuta
billionaires
blinding
canas
canoeing
cbi
chiba
chopped
counterattack
depriving
distinguish
downplay
downwards
easternmost
entertain
euphrates
evian
faeroe
flats
forestall
freer
goldwyn
graceful
hayat
hca
instituted
interruption
irb
kerik
massage
meadows
mirko
nacchio
ornate
overstated
partition
relieving
religiously
residue
rewarding
rewriting
schweppes
seething
senseless
superbike
systemic
teodoro
tumult
unmarked
updating
vanquished
violin
whitaker
winery
witter
younes
##acies
##asa
##duct
##duction
##night
##ose
##uding
##wind
##wise
##zel
amorim
angst
austere
bilking
brightened
buttons
centering
clarin
composers
conductors
culmination
culprit
davao
deterred
dismissals
energized
fabrizio
feasible
foggy
forecaster
fundamentalism
geoffrey
glaxo
grind
insights
instigating
kantor
knit
lovely
lozada
meciar
mindful
mistreating
mmd
mong
newer
nonpartisan
nou
parisian
peabody
pedal
pnp
portrays
presenter
prodding
pupil
renee
renting
reviled
rhinos
sangakkara
schooling
shuffled
steelmakers
stevenson
turkeys
windhoek
##bh
##cek
##current
##ead
##ennial
##gne
##heim
##ision
##ject
##lc
##osh
##rment
##tom
##uct
##uss
##vet
aero
afflicting
airstrip
alcoholism
attends
bainimarama
bao
belted
butterflies
censured
citicorp
confronts
contradicted
craigslist
crespo
denuclearization
destroyers
diaries
employs
enveloped
firecracker
hapless
hiroshi
ignorance
ikea
intoxicated
lifestyles
loosened
lotte
monfils
ncc
niagara
numbered
obliged
penguin
poul
redistricting
robbins
sellout
shadowed
sitter
smoked
stich
strident
sukhoi
surrogate
tempted
tillman
torrid
undercutting
worthless
wreaking
##ahl
##cable
##cating
##cl
##dheim
##dom
##ect
##hani
##harma
##lift
##post
##rco
##shu
##ups
##ursing
ambushes
animosity
bmg
bowden
brandenburg
breakout
canned
constantinescu
demonstrator
devon
differently
dimitar
dora
dye
eisenhower
erwin
fared
fertilizers
gro
gu
hakeem
hamza
huskies
infiltrating
inflame
itv
kalam
lurking
mariana
maya
mckinnon
mrt
myanma
np
nsw
obstruct
posthumous
premieres
prints
prominently
quits
rations
reasonably
rejuvenate
resembling
revolutionize
rochus
rong
sarawak
saxophonist
scud
scurrying
sow
swindled
tempers
uncovering
unveils
uruzgan
vilified
virtues
wailing
##about
##dler
##eril
##fest
##ggled
##lace
##market
##old
##usion
##wo
##worked
accurately
adf
adjoining
admirals
anke
antiviral
barghouti
benoit
bougainville
brando
carole
crouch
debbie
democratization
departures
depressing
dinamo
dinar
dotted
dragan
edited
enlarge
felons
francophone
furnishings
glitter
greener
grin
grocer
heap
ibero
imagery
impeding
ind
inflate
intruders
itinerary
jacqueline
jagger
jensen
journals
keyboard
legg
magne
nasiriyah
natalee
neglecting
noses
peoplesoft
putnam
qaboos
rafic
raisers
raton
rotting
ruggiero
saboteurs
sentimental
sexes
shellfish
sheryl
sia
siamese
sibling
siren
squares
stationary
stig
stowaways
streaked
swarms
swathes
tao
unifying
valero
wipro
worshipers
##aking
##cell
##ctive
##fect
##gler
##gm
##grapher
##heard
##hor
##plex
##rbin
##ret
##shin
##top
##zu
amoco
armistice
baking
basso
bragging
bruises
brunswick
cakes
carrie
cite
defences
dreary
emirati
erez
espanola
extraditing
fascinated
figuring
frustrations
galaxies
gte
guardiola
gunship
interleague
kane
lash
luna
mca
mg
microprocessors
neurological
pasteur
pepperdine
precursor
principals
redefine
refurbished
rosemary
shantou
showrooms
sickening
sipping
skeletons
stabilisation
stanislas
suk
sundown
sunglasses
terrific
vitaly
wedge
wheeler
wording
yogyakarta
##aid
##av
##gation
##hit
##hold
##itude
##lek
##lines
##pic
##trend
##tv
##uncing
##vski
alias
barzani
basayev
basics
benito
blas
bluefin
bolshoi
bowyer
branko
brightly
bypassing
camara
cautioning
cigars
classification
coexistence
colonialism
compounded
cosmos
cristian
davey
degrading
elisabeth
eruptions
evergreen
extinguish
eyewitness
floats
guardians
happier
internazionale
issa
judd
kerosene
kgaa
kirilenko
kitts
legged
luster
machu
menendez
momcilo
observations
oils
oz
paok
pedals
prep
prescribing
profiles
reassert
relievers
sampling
scarf
scenery
scrawled
seeding
shahid
shebab
sheila
shopkeepers
sizes
slandering
spells
standardize
steaming
stimulating
transmit
tsmc
tugboat
unbroken
underdeveloped
unfettered
utter
wartorn
watchful
yoga
##ake
##bana
##cket
##dating
##eiro
##fine
##icing
##ii
##itas
##key
##lberg
##lucky
##lya
##qiao
##som
##the
##uing
##writing
allergy
ambassadorial
angkor
antony
aspirin
atkins
battlefields
beamed
cadet
catania
cereals
cheltenham
chicks
christofias
cultivate
cyrus
decorating
distorting
electors
farmhouse
fluctuating
fractures
fran
gwen
heeding
hindi
houghton
ibge
indecency
insulation
katerina
kjell
klestil
luzhkov
macquarie
mentioning
multinationals
nostalgic
orphan
outpacing
paedophilia
pantani
picchu
pinning
popcorn
porous
puma
python
quicken
regulates
rink
roundly
scrappy
shouts
skype
slovene
slur
sobbing
softwood
souness
stockton
sudamericana
surveying
tegucigalpa
thyroid
trafalgar
traitor
trout
tsonga
undo
varying
verbally
vt
waitress
wawrinka
witty
yunus
##anova
##conference
##ggs
##gious
##going
##hieu
##lde
##mble
##note
##nsa
##olin
##tus
##unas
adoptive
amends
ames
baystars
bing
blizzards
bolanos
bonded
bourdais
brook
carts
cascade
chunyun
cipollini
coastlines
conservationist
crusading
dauphine
decrying
ebrd
emancipation
empower
et
faults
flora
fodder
galveston
genocidal
gheorghe
giscard
gnp
[...]
